{
  "version": "1.0",
  "truncation": null,
  "padding": null,
  "added_tokens": [
    {
      "id": 0,
      "content": "<pad>",
      "single_word": false,
      "lstrip": false,
      "rstrip": false,
      "normalized": false,
      "special": true
    },
    {
      "id": 1,
      "content": "<sos>",
      "single_word": false,
      "lstrip": false,
      "rstrip": false,
      "normalized": false,
      "special": true
    },
    {
      "id": 2,
      "content": "<eos>",
      "single_word": false,
      "lstrip": false,
      "rstrip": false,
      "normalized": false,
      "special": true
    },
    {
      "id": 3,
      "content": "<unk>",
      "single_word": false,
      "lstrip": false,
      "rstrip": false,
      "normalized": false,
      "special": true
    },
    {
      "id": 4,
      "content": "<sep>",
      "single_word": false,
      "lstrip": false,
      "rstrip": false,
      "normalized": false,
      "special": true
    }
  ],
  "normalizer": null,
  "pre_tokenizer": {
    "type": "Whitespace"
  },
  "post_processor": null,
  "decoder": null,
  "model": {
    "type": "BPE",
    "dropout": null,
    "unk_token": "<unk>",
    "continuing_subword_prefix": null,
    "end_of_word_suffix": null,
    "fuse_unk": false,
    "byte_fallback": false,
    "vocab": {
      "<pad>": 0,
      "<sos>": 1,
      "<eos>": 2,
      "<unk>": 3,
      "<sep>": 4,
      "!": 5,
      "\"": 6,
      "#": 7,
      "$": 8,
      "%": 9,
      "&": 10,
      "'": 11,
      "(": 12,
      ")": 13,
      "*": 14,
      "+": 15,
      ",": 16,
      "-": 17,
      ".": 18,
      "/": 19,
      "0": 20,
      "1": 21,
      "2": 22,
      "3": 23,
      "4": 24,
      "5": 25,
      "6": 26,
      "7": 27,
      "8": 28,
      "9": 29,
      ":": 30,
      ";": 31,
      "<": 32,
      "=": 33,
      ">": 34,
      "?": 35,
      "A": 36,
      "B": 37,
      "C": 38,
      "D": 39,
      "E": 40,
      "F": 41,
      "G": 42,
      "H": 43,
      "I": 44,
      "J": 45,
      "K": 46,
      "L": 47,
      "M": 48,
      "N": 49,
      "O": 50,
      "P": 51,
      "Q": 52,
      "R": 53,
      "S": 54,
      "T": 55,
      "U": 56,
      "V": 57,
      "W": 58,
      "X": 59,
      "Y": 60,
      "Z": 61,
      "[": 62,
      "]": 63,
      "_": 64,
      "`": 65,
      "a": 66,
      "b": 67,
      "c": 68,
      "d": 69,
      "e": 70,
      "f": 71,
      "g": 72,
      "h": 73,
      "i": 74,
      "j": 75,
      "k": 76,
      "l": 77,
      "m": 78,
      "n": 79,
      "o": 80,
      "p": 81,
      "q": 82,
      "r": 83,
      "s": 84,
      "t": 85,
      "u": 86,
      "v": 87,
      "w": 88,
      "x": 89,
      "y": 90,
      "z": 91,
      "{": 92,
      "}": 93,
      "~": 94,
      "": 95,
      "£": 96,
      "«": 97,
      "°": 98,
      "º": 99,
      "»": 100,
      "À": 101,
      "Â": 102,
      "Æ": 103,
      "Ç": 104,
      "È": 105,
      "É": 106,
      "Ê": 107,
      "Î": 108,
      "Ï": 109,
      "Ô": 110,
      "Ù": 111,
      "Û": 112,
      "à": 113,
      "á": 114,
      "â": 115,
      "ã": 116,
      "ä": 117,
      "æ": 118,
      "ç": 119,
      "è": 120,
      "é": 121,
      "ê": 122,
      "ë": 123,
      "ì": 124,
      "î": 125,
      "ï": 126,
      "ñ": 127,
      "ò": 128,
      "ô": 129,
      "ö": 130,
      "ù": 131,
      "û": 132,
      "ü": 133,
      "Œ": 134,
      "œ": 135,
      "έ": 136,
      "ί": 137,
      "α": 138,
      "β": 139,
      "γ": 140,
      "ε": 141,
      "ι": 142,
      "κ": 143,
      "λ": 144,
      "μ": 145,
      "ν": 146,
      "ο": 147,
      "τ": 148,
      "φ": 149,
      "ϊ": 150,
      "ό": 151,
      "А": 152,
      "Г": 153,
      "Н": 154,
      "–": 155,
      "—": 156,
      "‘": 157,
      "’": 158,
      "“": 159,
      "”": 160,
      "…": 161,
      "−": 162,
      "os": 163,
      "he": 164,
      "re": 165,
      "ou": 166,
      "an": 167,
      "en": 168,
      "in": 169,
      "on": 170,
      "le": 171,
      "it": 172,
      "sos": 173,
      "eos": 174,
      "de": 175,
      "is": 176,
      "the": 177,
      "er": 178,
      ".<": 179,
      "es": 180,
      "qu": 181,
      "ar": 182,
      "at": 183,
      "as": 184,
      "or": 185,
      "><": 186,
      "et": 187,
      "il": 188,
      "ent": 189,
      "la": 190,
      "se": 191,
      "to": 192,
      "me": 193,
      "and": 194,
      "th": 195,
      "of": 196,
      "un": 197,
      "ait": 198,
      "ce": 199,
      "ing": 200,
      "al": 201,
      "te": 202,
      "ur": 203,
      "av": 204,
      "om": 205,
      "ch": 206,
      "au": 207,
      "ai": 208,
      "ed": 209,
      "our": 210,
      "que": 211,
      "ri": 212,
      "les": 213,
      "us": 214,
      "ne": 215,
      "ous": 216,
      "ant": 217,
      "ad": 218,
      "el": 219,
      "ir": 220,
      "li": 221,
      "si": 222,
      "ais": 223,
      "no": 224,
      "pr": 225,
      "res": 226,
      "tr": 227,
      "hi": 228,
      "be": 229,
      "ut": 230,
      "ion": 231,
      "ag": 232,
      "ver": 233,
      "was": 234,
      "ét": 235,
      "ab": 236,
      "con": 237,
      "par": 238,
      "for": 239,
      "ment": 240,
      "out": 241,
      "ain": 242,
      "ap": 243,
      "that": 244,
      "am": 245,
      "ter": 246,
      "ans": 247,
      "des": 248,
      "je": 249,
      "une": 250,
      "ave": 251,
      "ac": 252,
      "tre": 253,
      "his": 254,
      "ly": 255,
      "so": 256,
      "com": 257,
      "her": 258,
      "ld": 259,
      "pas": 260,
      "gh": 261,
      "mo": 262,
      "ith": 263,
      ">\"": 264,
      "lo": 265,
      "pe": 266,
      "du": 267,
      "ie": 268,
      "st": 269,
      "ve": 270,
      "with": 271,
      "ay": 272,
      "su": 273,
      "qui": 274,
      "est": 275,
      "di": 276,
      "ro": 277,
      "had": 278,
      "we": 279,
      "lu": 280,
      "--": 281,
      "you": 282,
      "son": 283,
      "\"<": 284,
      "ho": 285,
      "co": 286,
      "ren": 287,
      "vo": 288,
      "elle": 289,
      "che": 290,
      "ti": 291,
      "pl": 292,
      "sa": 293,
      "all": 294,
      "dé": 295,
      "ux": 296,
      "mon": 297,
      "ould": 298,
      "dans": 299,
      "end": 300,
      "not": 301,
      "vous": 302,
      "fr": 303,
      "ght": 304,
      "pour": 305,
      "The": 306,
      "fe": 307,
      "ard": 308,
      "my": 309,
      "mp": 310,
      "him": 311,
      "ré": 312,
      "sur": 313,
      "ex": 314,
      "était": 315,
      "ma": 316,
      "whi": 317,
      "ure": 318,
      "aient": 319,
      "ill": 320,
      "do": 321,
      "fi": 322,
      "ge": 323,
      "po": 324,
      "man": 325,
      "ci": 326,
      "which": 327,
      "lui": 328,
      "dit": 329,
      "ée": 330,
      "red": 331,
      "gr": 332,
      "ke": 333,
      ">--": 334,
      "ser": 335,
      "per": 336,
      "der": 337,
      "one": 338,
      "up": 339,
      "fo": 340,
      "ation": 341,
      "dis": 342,
      "ille": 343,
      "avait": 344,
      "ther": 345,
      "ul": 346,
      "she": 347,
      "ct": 348,
      "ces": 349,
      ".\"<": 350,
      "plus": 351,
      "ien": 352,
      "mes": 353,
      "ven": 354,
      "have": 355,
      "ses": 356,
      "go": 357,
      "pro": 358,
      "tout": 359,
      "by": 360,
      "don": 361,
      "vi": 362,
      "oun": 363,
      "this": 364,
      "mi": 365,
      "ort": 366,
      "mb": 367,
      "able": 368,
      "but": 369,
      "sh": 370,
      "ite": 371,
      "ine": 372,
      "ouv": 373,
      "age": 374,
      "ong": 375,
      "sai": 376,
      "?<": 377,
      "are": 378,
      "ten": 379,
      "Il": 380,
      "ère": 381,
      "ck": 382,
      "ette": 383,
      "hat": 384,
      "nous": 385,
      "sel": 386,
      "avec": 387,
      "ue": 388,
      "cr": 389,
      "from": 390,
      "br": 391,
      "!<": 392,
      "ons": 393,
      "mais": 394,
      "ted": 395,
      "od": 396,
      "said": 397,
      "és": 398,
      "pos": 399,
      "whe": 400,
      "lle": 401,
      "were": 402,
      "op": 403,
      "rent": 404,
      "int": 405,
      "ble": 406,
      "ame": 407,
      "ance": 408,
      "aut": 409,
      "Je": 410,
      "ni": 411,
      "pu": 412,
      "they": 413,
      "ff": 414,
      "pla": 415,
      "mar": 416,
      "ord": 417,
      ",\"": 418,
      "bien": 419,
      "who": 420,
      "bo": 421,
      "would": 422,
      "ers": 423,
      "ta": 424,
      "very": 425,
      "wn": 426,
      "cou": 427,
      "ence": 428,
      "cette": 429,
      "self": 430,
      "car": 431,
      "ang": 432,
      "leur": 433,
      "jour": 434,
      "quel": 435,
      "comme": 436,
      "main": 437,
      "eur": 438,
      "aux": 439,
      "min": 440,
      "aire": 441,
      "im": 442,
      "ès": 443,
      "ast": 444,
      "them": 445,
      "let": 446,
      "pi": 447,
      "ose": 448,
      "pre": 449,
      "He": 450,
      "now": 451,
      "ok": 452,
      "ils": 453,
      "ors": 454,
      "ins": 455,
      "cri": 456,
      "gn": 457,
      "ra": 458,
      "hom": 459,
      "ust": 460,
      "air": 461,
      "thing": 462,
      "if": 463,
      "see": 464,
      "fin": 465,
      "use": 466,
      "ound": 467,
      "ll": 468,
      "comp": 469,
      "long": 470,
      "ts": 471,
      "way": 472,
      "ert": 473,
      "app": 474,
      "ions": 475,
      "ob": 476,
      "lit": 477,
      "cour": 478,
      "there": 479,
      "dre": 480,
      "ate": 481,
      "ded": 482,
      "ret": 483,
      "their": 484,
      "fait": 485,
      "could": 486,
      "been": 487,
      "moi": 488,
      "low": 489,
      "men": 490,
      "will": 491,
      "bre": 492,
      "ye": 493,
      "ell": 494,
      "ess": 495,
      "Le": 496,
      ">«": 497,
      "fa": 498,
      "tou": 499,
      "ise": 500,
      "pres": 501,
      "day": 502,
      "mer": 503,
      "iss": 504,
      "agn": 505,
      "part": 506,
      "wo": 507,
      "ire": 508,
      "être": 509,
      "ler": 510,
      "lait": 511,
      "It": 512,
      "led": 513,
      "when": 514,
      "gre": 515,
      "its": 516,
      "sou": 517,
      "what": 518,
      "af": 519,
      "att": 520,
      "other": 521,
      "gu": 522,
      "can": 523,
      "temp": 524,
      "An": 525,
      "more": 526,
      "reg": 527,
      "rép": 528,
      "ér": 529,
      "your": 530,
      "Ar": 531,
      "deux": 532,
      "ner": 533,
      "ough": 534,
      "ol": 535,
      "cher": 536,
      ">–": 537,
      "some": 538,
      "fort": 539,
      "cl": 540,
      "mê": 541,
      "sans": 542,
      "ved": 543,
      "dev": 544,
      "urn": 545,
      "any": 546,
      "sent": 547,
      "ité": 548,
      "pen": 549,
      "gi": 550,
      "king": 551,
      "ought": 552,
      "puis": 553,
      "sé": 554,
      "dou": 555,
      "rep": 556,
      "ches": 557,
      "?\"<": 558,
      "mis": 559,
      "ost": 560,
      "tle": 561,
      "»<": 562,
      "cap": 563,
      "..": 564,
      "cont": 565,
      "then": 566,
      "into": 567,
      "imp": 568,
      "ful": 569,
      "ont": 570,
      "cal": 571,
      "med": 572,
      "Mais": 573,
      "mom": 574,
      "La": 575,
      "But": 576,
      "près": 577,
      "moment": 578,
      "fore": 579,
      "tes": 580,
      "asse": 581,
      "ques": 582,
      "hed": 583,
      "bon": 584,
      "même": 585,
      "sion": 586,
      "str": 587,
      "fut": 588,
      "uli": 589,
      "oir": 590,
      "Qu": 591,
      "faire": 592,
      "ass": 593,
      "point": 594,
      "vers": 595,
      "ôt": 596,
      "did": 597,
      "time": 598,
      "cor": 599,
      "again": 600,
      "vie": 601,
      "has": 602,
      "pris": 603,
      "aus": 604,
      "ack": 605,
      "ity": 606,
      "vis": 607,
      "dire": 608,
      "ide": 609,
      "tu": 610,
      "ante": 611,
      "oi": 612,
      "over": 613,
      "like": 614,
      "sed": 615,
      "off": 616,
      "arri": 617,
      "wor": 618,
      "sieur": 619,
      "upon": 620,
      "arr": 621,
      "endant": 622,
      "hand": 623,
      "Et": 624,
      "than": 625,
      "voir": 626,
      "nu": 627,
      "été": 628,
      "little": 629,
      "coup": 630,
      "two": 631,
      "ois": 632,
      "né": 633,
      "And": 634,
      "ish": 635,
      "homme": 636,
      "répon": 637,
      "ach": 638,
      "où": 639,
      "cro": 640,
      "orte": 641,
      "mé": 642,
      "ût": 643,
      "ier": 644,
      "ep": 645,
      "met": 646,
      "cent": 647,
      "made": 648,
      "hu": 649,
      "urs": 650,
      "pet": 651,
      "Mr": 652,
      "ated": 653,
      "jus": 654,
      "mu": 655,
      "fois": 656,
      "look": 657,
      "core": 658,
      "autre": 659,
      "ves": 660,
      "temps": 661,
      "art": 662,
      "act": 663,
      "fer": 664,
      "ked": 665,
      "went": 666,
      "cle": 667,
      "lan": 668,
      "jours": 669,
      "En": 670,
      "avoir": 671,
      "voi": 672,
      "say": 673,
      "peu": 674,
      "appe": 675,
      "only": 676,
      "ures": 677,
      "vent": 678,
      "pré": 679,
      "No": 680,
      "encore": 681,
      "ty": 682,
      "know": 683,
      "tagn": 684,
      "là": 685,
      "Ch": 686,
      "char": 687,
      "som": 688,
      "about": 689,
      "come": 690,
      "came": 691,
      "cu": 692,
      "great": 693,
      "Juli": 694,
      "ath": 695,
      "eu": 696,
      "himself": 697,
      "pt": 698,
      "port": 699,
      "ey": 700,
      "Julien": 701,
      ">'": 702,
      "ig": 703,
      "In": 704,
      "fir": 705,
      "va": 706,
      "vou": 707,
      "ond": 708,
      "ple": 709,
      "after": 710,
      "ants": 711,
      "mor": 712,
      "place": 713,
      "Artagn": 714,
      "Artagnan": 715,
      "ree": 716,
      ":<": 717,
      "before": 718,
      "even": 719,
      "emp": 720,
      "vre": 721,
      "rie": 722,
      "mand": 723,
      "ind": 724,
      "lé": 725,
      "oc": 726,
      "ments": 727,
      "cur": 728,
      "ting": 729,
      "should": 730,
      "sho": 731,
      "mat": 732,
      "voy": 733,
      "cas": 734,
      "grand": 735,
      "pass": 736,
      "On": 737,
      "aine": 738,
      "gent": 739,
      "thought": 740,
      "under": 741,
      "less": 742,
      "down": 743,
      "prit": 744,
      "étaient": 745,
      "ens": 746,
      "ady": 747,
      "every": 748,
      "ale": 749,
      "heure": 750,
      "ton": 751,
      "ince": 752,
      "semb": 753,
      "dont": 754,
      "these": 755,
      "cau": 756,
      "She": 757,
      "must": 758,
      "trou": 759,
      "ary": 760,
      "id": 761,
      "pouv": 762,
      "tres": 763,
      "ak": 764,
      "aur": 765,
      "hor": 766,
      "Elle": 767,
      "avais": 768,
      "fri": 769,
      "regard": 770,
      "ward": 771,
      "ving": 772,
      "gl": 773,
      "ient": 774,
      "most": 775,
      "fem": 776,
      "tant": 777,
      "entre": 778,
      "spe": 779,
      "sous": 780,
      "Mon": 781,
      "cla": 782,
      "good": 783,
      "jo": 784,
      "ête": 785,
      "pri": 786,
      "Par": 787,
      "You": 788,
      "cert": 789,
      "well": 790,
      "rou": 791,
      "sp": 792,
      "wh": 793,
      "face": 794,
      "ars": 795,
      "mal": 796,
      "col": 797,
      "without": 798,
      "ru": 799,
      "!\"": 800,
      "sto": 801,
      "cre": 802,
      "never": 803,
      "quelque": 804,
      "ouse": 805,
      "jam": 806,
      "ps": 807,
      "trouv": 808,
      "ction": 809,
      "Ce": 810,
      "na": 811,
      "ran": 812,
      "first": 813,
      "donc": 814,
      "itu": 815,
      "tous": 816,
      "lais": 817,
      "where": 818,
      "bet": 819,
      "sup": 820,
      "ieux": 821,
      "Ne": 822,
      "èrent": 823,
      "abri": 824,
      "mil": 825,
      "back": 826,
      "thos": 827,
      "sible": 828,
      "rien": 829,
      "rais": 830,
      "aussi": 831,
      "ées": 832,
      "ieu": 833,
      "quand": 834,
      "contin": 835,
      "lors": 836,
      "jet": 837,
      "inst": 838,
      "!\"<": 839,
      "ng": 840,
      "ness": 841,
      "ally": 842,
      "such": 843,
      "rest": 844,
      "bel": 845,
      "trav": 846,
      "ange": 847,
      "ature": 848,
      "arm": 849,
      "beau": 850,
      "tain": 851,
      "ic": 852,
      "wat": 853,
      "new": 854,
      "fit": 855,
      "sil": 856,
      "word": 857,
      "yeux": 858,
      "inter": 859,
      "toute": 860,
      "cer": 861,
      "eth": 862,
      "head": 863,
      "rendre": 864,
      "aff": 865,
      "beg": 866,
      "ign": 867,
      "ph": 868,
      "ations": 869,
      "avant": 870,
      "ink": 871,
      "much": 872,
      "gar": 873,
      "put": 874,
      "cul": 875,
      "prof": 876,
      "cela": 877,
      "bro": 878,
      "ning": 879,
      "Mar": 880,
      "What": 881,
      "votre": 882,
      "person": 883,
      "ely": 884,
      "dent": 885,
      "fais": 886,
      "ger": 887,
      "hab": 888,
      "ared": 889,
      "trois": 890,
      "acc": 891,
      "jamais": 892,
      "sort": 893,
      "cham": 894,
      "lement": 895,
      "'<": 896,
      "eyes": 897,
      "Les": 898,
      "Fabri": 899,
      "wom": 900,
      "might": 901,
      "gran": 902,
      "Ma": 903,
      "lar": 904,
      "vit": 905,
      "leurs": 906,
      "tra": 907,
      "ry": 908,
      "nothing": 909,
      "light": 910,
      "femme": 911,
      "room": 912,
      "après": 913,
      "eau": 914,
      "én": 915,
      "land": 916,
      "peut": 917,
      "here": 918,
      "last": 919,
      "mit": 920,
      "ies": 921,
      "This": 922,
      "nes": 923,
      "get": 924,
      "val": 925,
      "bes": 926,
      "young": 927,
      "There": 928,
      "continu": 929,
      "enf": 930,
      "ft": 931,
      "how": 932,
      "avez": 933,
      "pendant": 934,
      "lied": 935,
      "make": 936,
      "eng": 937,
      "répondit": 938,
      "still": 939,
      "tour": 940,
      "avaient": 941,
      "nom": 942,
      "endre": 943,
      "shall": 944,
      "cha": 945,
      "bou": 946,
      "turn": 947,
      "ître": 948,
      "At": 949,
      "monsieur": 950,
      "being": 951,
      "écri": 952,
      "night": 953,
      "adame": 954,
      "suis": 955,
      "yr": 956,
      "rer": 957,
      "aving": 958,
      "té": 959,
      "quoi": 960,
      "found": 961,
      "quelques": 962,
      "fel": 963,
      "lic": 964,
      "prom": 965,
      "moins": 966,
      "jusqu": 967,
      "non": 968,
      "thr": 969,
      "mur": 970,
      "ot": 971,
      "enne": 972,
      "set": 973,
      "vant": 974,
      "They": 975,
      "premi": 976,
      "ages": 977,
      "toujours": 978,
      "side": 979,
      "old": 980,
      "ze": 981,
      "dr": 982,
      "tri": 983,
      "demand": 984,
      "certain": 985,
      "friend": 986,
      "three": 987,
      "jeune": 988,
      "tel": 989,
      "emb": 990,
      ",'": 991,
      "away": 992,
      "sui": 993,
      "gg": 994,
      "Vous": 995,
      "take": 996,
      "pau": 997,
      "cy": 998,
      "ily": 999,
      "ste": 1000,
      "porte": 1001,
      "row": 1002,
      "too": 1003,
      "clo": 1004,
      "saw": 1005,
      "fu": 1006,
      "hon": 1007,
      "cin": 1008,
      "den": 1009,
      "vé": 1010,
      "ken": 1011,
      "Pen": 1012,
      "seu": 1013,
      "ious": 1014,
      "sait": 1015,
      "conn": 1016,
      "eût": 1017,
      "contre": 1018,
      "four": 1019,
      "ped": 1020,
      "elles": 1021,
      "ild": 1022,
      "replied": 1023,
      "ouve": 1024,
      "ainsi": 1025,
      "left": 1026,
      "ef": 1027,
      "cet": 1028,
      "fus": 1029,
      "toutes": 1030,
      "?\"": 1031,
      "bert": 1032,
      "ist": 1033,
      "fol": 1034,
      "took": 1035,
      "cause": 1036,
      "Pencr": 1037,
      "lat": 1038,
      "sus": 1039,
      "cé": 1040,
      "alors": 1041,
      "open": 1042,
      "ow": 1043,
      "ente": 1044,
      "pect": 1045,
      "own": 1046,
      "Then": 1047,
      "ition": 1048,
      "fam": 1049,
      "De": 1050,
      "heures": 1051,
      "terre": 1052,
      "rai": 1053,
      "ished": 1054,
      "ced": 1055,
      "chose": 1056,
      "We": 1057,
      "while": 1058,
      "gen": 1059,
      "ive": 1060,
      "just": 1061,
      "sal": 1062,
      "Oh": 1063,
      "happ": 1064,
      "ique": 1065,
      "Com": 1066,
      "venir": 1067,
      "pa": 1068,
      "once": 1069,
      "lig": 1070,
      "hun": 1071,
      "six": 1072,
      "sont": 1073,
      "ds": 1074,
      "autres": 1075,
      "may": 1076,
      "Con": 1077,
      "sing": 1078,
      "quest": 1079,
      "think": 1080,
      "hen": 1081,
      "illes": 1082,
      "sign": 1083,
      "notre": 1084,
      "coun": 1085,
      "ju": 1086,
      "eut": 1087,
      "hour": 1088,
      "those": 1089,
      "mot": 1090,
      "bar": 1091,
      "anger": 1092,
      "life": 1093,
      "house": 1094,
      "Un": 1095,
      "tête": 1096,
      "fran": 1097,
      "Ah": 1098,
      "pay": 1099,
      "woman": 1100,
      "dif": 1101,
      "ville": 1102,
      "trop": 1103,
      "ui": 1104,
      "bour": 1105,
      "ling": 1106,
      "sub": 1107,
      "ever": 1108,
      "through": 1109,
      ">—": 1110,
      "ks": 1111,
      "lad": 1112,
      "sour": 1113,
      "tenant": 1114,
      "stre": 1115,
      "appro": 1116,
      "étais": 1117,
      "form": 1118,
      "sir": 1119,
      "ache": 1120,
      "eff": 1121,
      "devant": 1122,
      "sais": 1123,
      "though": 1124,
      "pied": 1125,
      "seemed": 1126,
      "chez": 1127,
      "going": 1128,
      "ole": 1129,
      "hal": 1130,
      "bas": 1131,
      "allait": 1132,
      "soon": 1133,
      "Athos": 1134,
      "ardin": 1135,
      "return": 1136,
      "çon": 1137,
      "Mme": 1138,
      "dro": 1139,
      "right": 1140,
      "vol": 1141,
      "ene": 1142,
      "quat": 1143,
      "ways": 1144,
      "sat": 1145,
      ".'<": 1146,
      "soir": 1147,
      "ade": 1148,
      "parti": 1149,
      "instant": 1150,
      "ber": 1151,
      "aper": 1152,
      "vais": 1153,
      "très": 1154,
      "myself": 1155,
      "far": 1156,
      "contr": 1157,
      "pouvait": 1158,
      "pit": 1159,
      "mas": 1160,
      "bout": 1161,
      "ères": 1162,
      "petit": 1163,
      "wi": 1164,
      "prés": 1165,
      "grande": 1166,
      "mber": 1167,
      "bed": 1168,
      "door": 1169,
      "asked": 1170,
      "amis": 1171,
      "pé": 1172,
      "iz": 1173,
      "rit": 1174,
      "pleas": 1175,
      "ane": 1176,
      "fille": 1177,
      "As": 1178,
      "trait": 1179,
      "cried": 1180,
      "cted": 1181,
      "rait": 1182,
      "Mil": 1183,
      "cess": 1184,
      "wer": 1185,
      "orter": 1186,
      "lie": 1187,
      "same": 1188,
      "ched": 1189,
      "cs": 1190,
      "heard": 1191,
      "tru": 1192,
      "table": 1193,
      "give": 1194,
      "aille": 1195,
      "nature": 1196,
      "bles": 1197,
      "stand": 1198,
      "tell": 1199,
      "ça": 1200,
      "love": 1201,
      "vait": 1202,
      "capit": 1203,
      "ready": 1204,
      "illa": 1205,
      "try": 1206,
      "wards": 1207,
      "sure": 1208,
      "Nous": 1209,
      "faut": 1210,
      "Char": 1211,
      "bu": 1212,
      "vres": 1213,
      "Ro": 1214,
      "ings": 1215,
      "So": 1216,
      "aint": 1217,
      "auc": 1218,
      "having": 1219,
      "mort": 1220,
      ".»<": 1221,
      "voix": 1222,
      "io": 1223,
      "ile": 1224,
      "Paris": 1225,
      "dist": 1226,
      "follow": 1227,
      "told": 1228,
      "isten": 1229,
      "water": 1230,
      "looked": 1231,
      "heart": 1232,
      "monde": 1233,
      "ear": 1234,
      "tal": 1235,
      "assez": 1236,
      "Au": 1237,
      "mois": 1238,
      "ters": 1239,
      "sol": 1240,
      "venait": 1241,
      "cut": 1242,
      "nor": 1243,
      "obser": 1244,
      "Du": 1245,
      "secon": 1246,
      "against": 1247,
      "ges": 1248,
      "ici": 1249,
      "got": 1250,
      "sit": 1251,
      "Cyr": 1252,
      "depuis": 1253,
      "dra": 1254,
      "began": 1255,
      "quit": 1256,
      "Cyrus": 1257,
      "connais": 1258,
      "ép": 1259,
      "ight": 1260,
      "serait": 1261,
      "dres": 1262,
      "née": 1263,
      "ither": 1264,
      "another": 1265,
      "fect": 1266,
      "nuit": 1267,
      "chambre": 1268,
      "yet": 1269,
      "simp": 1270,
      "That": 1271,
      "quatre": 1272,
      "herself": 1273,
      "gé": 1274,
      "Oui": 1275,
      "Yes": 1276,
      "felt": 1277,
      "hy": 1278,
      "ris": 1279,
      "find": 1280,
      "indi": 1281,
      "My": 1282,
      "order": 1283,
      "always": 1284,
      "rez": 1285,
      "chant": 1286,
      "ière": 1287,
      "bru": 1288,
      "Monsieur": 1289,
      "êtes": 1290,
      "whom": 1291,
      "aps": 1292,
      "large": 1293,
      "fro": 1294,
      "seen": 1295,
      "inte": 1296,
      "marqu": 1297,
      "côt": 1298,
      "sc": 1299,
      "lice": 1300,
      "ables": 1301,
      "gentle": 1302,
      "half": 1303,
      "bla": 1304,
      "few": 1305,
      "tait": 1306,
      "ines": 1307,
      "rom": 1308,
      "aller": 1309,
      "commen": 1310,
      "work": 1311,
      "Vo": 1312,
      "quelle": 1313,
      "ween": 1314,
      "ople": 1315,
      "Th": 1316,
      "round": 1317,
      "Madame": 1318,
      "flo": 1319,
      "écria": 1320,
      "days": 1321,
      "itude": 1322,
      "ather": 1323,
      "oft": 1324,
      "appeared": 1325,
      "silence": 1326,
      "desc": 1327,
      "rece": 1328,
      "child": 1329,
      "Gr": 1330,
      "vu": 1331,
      "guer": 1332,
      "fle": 1333,
      "name": 1334,
      "lau": 1335,
      "mou": 1336,
      "anim": 1337,
      "comm": 1338,
      "tement": 1339,
      "seul": 1340,
      "mir": 1341,
      "gne": 1342,
      "neur": 1343,
      "suc": 1344,
      "wal": 1345,
      "étr": 1346,
      "bus": 1347,
      "cup": 1348,
      "maison": 1349,
      "between": 1350,
      "question": 1351,
      "iness": 1352,
      "ban": 1353,
      "quite": 1354,
      "capitaine": 1355,
      "eux": 1356,
      "hommes": 1357,
      "liz": 1358,
      "compagn": 1359,
      "prison": 1360,
      "win": 1361,
      "issait": 1362,
      "déj": 1363,
      "fond": 1364,
      "Bon": 1365,
      "bl": 1366,
      "uis": 1367,
      "Si": 1368,
      "spo": 1369,
      "mid": 1370,
      "Dieu": 1371,
      "morning": 1372,
      "remain": 1373,
      "cir": 1374,
      "idé": 1375,
      "ances": 1376,
      "near": 1377,
      "faisait": 1378,
      "terri": 1379,
      "jou": 1380,
      "evening": 1381,
      "When": 1382,
      "ined": 1383,
      "quet": 1384,
      "shi": 1385,
      "fall": 1386,
      "gave": 1387,
      "vel": 1388,
      "dence": 1389,
      "dow": 1390,
      "net": 1391,
      "Milady": 1392,
      "possible": 1393,
      "If": 1394,
      "éch": 1395,
      "ât": 1396,
      "Well": 1397,
      "knew": 1398,
      "ég": 1399,
      "doub": 1400,
      "Eliz": 1401,
      "Eh": 1402,
      "Pr": 1403,
      "dét": 1404,
      "wever": 1405,
      "ating": 1406,
      "utes": 1407,
      "bri": 1408,
      "ca": 1409,
      "entend": 1410,
      "oss": 1411,
      "many": 1412,
      "petite": 1413,
      "Fo": 1414,
      "haps": 1415,
      "sis": 1416,
      "fici": 1417,
      "taken": 1418,
      "people": 1419,
      "feu": 1420,
      "bras": 1421,
      "aute": 1422,
      "aw": 1423,
      "ilus": 1424,
      "hear": 1425,
      "peine": 1426,
      "prendre": 1427,
      "each": 1428,
      "gir": 1429,
      "feel": 1430,
      "autilus": 1431,
      "zio": 1432,
      "dar": 1433,
      "Fabrice": 1434,
      "Nautilus": 1435,
      "ouver": 1436,
      "maintenant": 1437,
      "hands": 1438,
      "present": 1439,
      "Fabrizio": 1440,
      "ats": 1441,
      "condu": 1442,
      "belie": 1443,
      "pou": 1444,
      "ried": 1445,
      "exce": 1446,
      "fig": 1447,
      "derni": 1448,
      "mind": 1449,
      "rap": 1450,
      "mari": 1451,
      "passed": 1452,
      "stru": 1453,
      "since": 1454,
      "mille": 1455,
      "voice": 1456,
      "used": 1457,
      "côté": 1458,
      "oses": 1459,
      "imag": 1460,
      "donner": 1461,
      "doute": 1462,
      "abeth": 1463,
      "lez": 1464,
      "whole": 1465,
      "father": 1466,
      "Sir": 1467,
      "enough": 1468,
      "plais": 1469,
      "Her": 1470,
      "pped": 1471,
      "sea": 1472,
      "lay": 1473,
      "personne": 1474,
      "parler": 1475,
      "dden": 1476,
      "rel": 1477,
      "père": 1478,
      "Elizabeth": 1479,
      "position": 1480,
      "ick": 1481,
      "amp": 1482,
      "matin": 1483,
      "trouver": 1484,
      "aurait": 1485,
      "vir": 1486,
      "dom": 1487,
      "ga": 1488,
      "fou": 1489,
      "ention": 1490,
      "ché": 1491,
      "ardinal": 1492,
      "minutes": 1493,
      "His": 1494,
      "cinq": 1495,
      "fact": 1496,
      "done": 1497,
      "sau": 1498,
      "words": 1499,
      "effet": 1500,
      "ras": 1501,
      "ened": 1502,
      "iez": 1503,
      "disait": 1504,
      "things": 1505,
      "retour": 1506,
      "usement": 1507,
      "quer": 1508,
      "tomb": 1509,
      "lieu": 1510,
      "ged": 1511,
      "quar": 1512,
      "ace": 1513,
      "arch": 1514,
      "fac": 1515,
      "ami": 1516,
      "impos": 1517,
      "lant": 1518,
      "enfin": 1519,
      "consi": 1520,
      "selves": 1521,
      "poor": 1522,
      "pat": 1523,
      "mettre": 1524,
      "cho": 1525,
      "abo": 1526,
      "dur": 1527,
      "arrê": 1528,
      "Jane": 1529,
      "bonne": 1530,
      "ody": 1531,
      "cit": 1532,
      "occup": 1533,
      "sec": 1534,
      "mother": 1535,
      "suite": 1536,
      "ham": 1537,
      "Charles": 1538,
      "demanda": 1539,
      "heur": 1540,
      "onde": 1541,
      "unes": 1542,
      "habit": 1543,
      "tor": 1544,
      "vrai": 1545,
      "aid": 1546,
      "exp": 1547,
      "stood": 1548,
      "window": 1549,
      "fat": 1550,
      "cardinal": 1551,
      "Fogg": 1552,
      "fur": 1553,
      "ues": 1554,
      "expres": 1555,
      "Ils": 1556,
      "ley": 1557,
      "world": 1558,
      "deed": 1559,
      "eas": 1560,
      "ject": 1561,
      "ail": 1562,
      "deman": 1563,
      "ende": 1564,
      "Puis": 1565,
      "nos": 1566,
      "pren": 1567,
      "unt": 1568,
      "mains": 1569,
      "Non": 1570,
      "pain": 1571,
      "prise": 1572,
      "laient": 1573,
      "longer": 1574,
      "Co": 1575,
      "fen": 1576,
      "St": 1577,
      "tienne": 1578,
      "five": 1579,
      "da": 1580,
      "attend": 1581,
      "milieu": 1582,
      "présent": 1583,
      "dred": 1584,
      "gros": 1585,
      "sor": 1586,
      "pose": 1587,
      "sk": 1588,
      "raison": 1589,
      "wait": 1590,
      "Por": 1591,
      "Une": 1592,
      "vered": 1593,
      "feet": 1594,
      "hundred": 1595,
      "Alors": 1596,
      "whose": 1597,
      "mag": 1598,
      "const": 1599,
      "nait": 1600,
      "dessus": 1601,
      "mieux": 1602,
      "bli": 1603,
      "roi": 1604,
      "xt": 1605,
      "ilà": 1606,
      "beaucoup": 1607,
      "Porthos": 1608,
      "All": 1609,
      "trans": 1610,
      "Pour": 1611,
      "maître": 1612,
      "devait": 1613,
      "called": 1614,
      "bal": 1615,
      "ms": 1616,
      "turned": 1617,
      "figure": 1618,
      "ason": 1619,
      "inci": 1620,
      "vér": 1621,
      "ething": 1622,
      "aim": 1623,
      "years": 1624,
      "fortune": 1625,
      "pieds": 1626,
      "cis": 1627,
      "tran": 1628,
      "haut": 1629,
      "pous": 1630,
      "vint": 1631,
      "déjà": 1632,
      "doubt": 1633,
      "nal": 1634,
      "Mrs": 1635,
      "fl": 1636,
      "hus": 1637,
      "reprit": 1638,
      "sul": 1639,
      "route": 1640,
      "girl": 1641,
      "ived": 1642,
      "brought": 1643,
      "bres": 1644,
      "celui": 1645,
      "body": 1646,
      "band": 1647,
      "…<": 1648,
      "vingt": 1649,
      "...": 1650,
      "quin": 1651,
      "plan": 1652,
      "seil": 1653,
      "God": 1654,
      "pur": 1655,
      "also": 1656,
      "beh": 1657,
      "gue": 1658,
      "seulement": 1659,
      "convers": 1660,
      "em": 1661,
      "semblait": 1662,
      "care": 1663,
      "pie": 1664,
      "île": 1665,
      "ached": 1666,
      "fix": 1667,
      "Tout": 1668,
      "faite": 1669,
      "veux": 1670,
      "something": 1671,
      "gens": 1672,
      "mous": 1673,
      "nouve": 1674,
      "ordin": 1675,
      "venu": 1676,
      "har": 1677,
      "dix": 1678,
      "because": 1679,
      "vice": 1680,
      "viol": 1681,
      "towards": 1682,
      "appar": 1683,
      "perhaps": 1684,
      "éri": 1685,
      "vois": 1686,
      "kno": 1687,
      "read": 1688,
      "travers": 1689,
      "leave": 1690,
      "fire": 1691,
      "isse": 1692,
      "comment": 1693,
      "speak": 1694,
      "endu": 1695,
      "Pencroft": 1696,
      "Cette": 1697,
      "Pencroff": 1698,
      "mine": 1699,
      "bat": 1700,
      "00": 1701,
      "coming": 1702,
      "gré": 1703,
      "guerite": 1704,
      "almost": 1705,
      "nat": 1706,
      "Marguerite": 1707,
      "Re": 1708,
      "choses": 1709,
      "Nemo": 1710,
      "nouv": 1711,
      "fine": 1712,
      "esp": 1713,
      "toi": 1714,
      "aires": 1715,
      "eus": 1716,
      "sci": 1717,
      "ask": 1718,
      "sole": 1719,
      "passer": 1720,
      "satis": 1721,
      "esprit": 1722,
      "chaque": 1723,
      "tenir": 1724,
      "vue": 1725,
      "fla": 1726,
      "mau": 1727,
      "chemin": 1728,
      "already": 1729,
      "better": 1730,
      "amour": 1731,
      "tice": 1732,
      "senti": 1733,
      "ientôt": 1734,
      "least": 1735,
      "Aramis": 1736,
      "pauvre": 1737,
      "exam": 1738,
      "por": 1739,
      "hold": 1740,
      "hard": 1741,
      "mith": 1742,
      "ned": 1743,
      "celle": 1744,
      "loin": 1745,
      "blan": 1746,
      "esse": 1747,
      "voyage": 1748,
      "force": 1749,
      "enfant": 1750,
      "kind": 1751,
      "pes": 1752,
      "run": 1753,
      "ately": 1754,
      "soit": 1755,
      "vement": 1756,
      "cru": 1757,
      "alone": 1758,
      "second": 1759,
      "To": 1760,
      "hur": 1761,
      "meur": 1762,
      "road": 1763,
      "Is": 1764,
      "bor": 1765,
      "sions": 1766,
      "chait": 1767,
      "abord": 1768,
      "Étienne": 1769,
      "ix": 1770,
      "ying": 1771,
      "produ": 1772,
      "compan": 1773,
      "éc": 1774,
      "tered": 1775,
      "fût": 1776,
      "sin": 1777,
      "black": 1778,
      "aj": 1779,
      "presque": 1780,
      "reco": 1781,
      "yez": 1782,
      "beso": 1783,
      "indre": 1784,
      "partout": 1785,
      "master": 1786,
      "dark": 1787,
      "sen": 1788,
      "course": 1789,
      "occas": 1790,
      "çait": 1791,
      "everything": 1792,
      "gone": 1793,
      "sée": 1794,
      "uses": 1795,
      "ore": 1796,
      "Cap": 1797,
      "pir": 1798,
      "ousand": 1799,
      "anything": 1800,
      "conversation": 1801,
      "blo": 1802,
      "ory": 1803,
      "gether": 1804,
      "francs": 1805,
      "sang": 1806,
      "ît": 1807,
      "etre": 1808,
      "coeur": 1809,
      "ards": 1810,
      "Quand": 1811,
      "captain": 1812,
      "idée": 1813,
      "together": 1814,
      "meme": 1815,
      "keep": 1816,
      "wood": 1817,
      "clock": 1818,
      "sudden": 1819,
      "wenty": 1820,
      "bot": 1821,
      "tom": 1822,
      "dear": 1823,
      "thousand": 1824,
      "next": 1825,
      "For": 1826,
      "Jo": 1827,
      "aven": 1828,
      "passion": 1829,
      "bois": 1830,
      "premier": 1831,
      "Saint": 1832,
      "ajout": 1833,
      "II": 1834,
      "want": 1835,
      "both": 1836,
      "crois": 1837,
      "Que": 1838,
      "lettre": 1839,
      "sac": 1840,
      "rence": 1841,
      "reste": 1842,
      "ailleurs": 1843,
      "letter": 1844,
      "mère": 1845,
      "lè": 1846,
      "themselves": 1847,
      "import": 1848,
      "appear": 1849,
      "tent": 1850,
      "fear": 1851,
      "ude": 1852,
      "impossible": 1853,
      "Conseil": 1854,
      "lou": 1855,
      "clos": 1856,
      "madame": 1857,
      "ys": 1858,
      "among": 1859,
      "stu": 1860,
      "front": 1861,
      "bit": 1862,
      "suff": 1863,
      "CH": 1864,
      "ez": 1865,
      "Spi": 1866,
      "indeed": 1867,
      "issant": 1868,
      "tranqu": 1869,
      "cti": 1870,
      "gal": 1871,
      "pare": 1872,
      "heureux": 1873,
      "ian": 1874,
      "seule": 1875,
      "terrible": 1876,
      "reux": 1877,
      "wered": 1878,
      "...<": 1879,
      "sant": 1880,
      "wall": 1881,
      "die": 1882,
      "ouvent": 1883,
      "teur": 1884,
      "behind": 1885,
      "twenty": 1886,
      "demi": 1887,
      "semble": 1888,
      "however": 1889,
      "argent": 1890,
      "éton": 1891,
      "oblig": 1892,
      "ides": 1893,
      "andon": 1894,
      "wife": 1895,
      "Ned": 1896,
      "country": 1897,
      "sle": 1898,
      "lett": 1899,
      "bord": 1900,
      "van": 1901,
      "iti": 1902,
      "rir": 1903,
      "thir": 1904,
      "tremb": 1905,
      "lorsque": 1906,
      "Spilett": 1907,
      "Al": 1908,
      "Smith": 1909,
      "full": 1910,
      "iste": 1911,
      "ets": 1912,
      "nouveau": 1913,
      "Dar": 1914,
      "How": 1915,
      "does": 1916,
      "rance": 1917,
      "wed": 1918,
      "arriv": 1919,
      "looking": 1920,
      "call": 1921,
      "rather": 1922,
      "courage": 1923,
      "wr": 1924,
      "anci": 1925,
      "abandon": 1926,
      "Se": 1927,
      "lp": 1928,
      "respect": 1929,
      "cat": 1930,
      "mour": 1931,
      "death": 1932,
      "conf": 1933,
      "pays": 1934,
      "Lau": 1935,
      "ship": 1936,
      "sold": 1937,
      "ured": 1938,
      "given": 1939,
      "Mahe": 1940,
      "bur": 1941,
      "igh": 1942,
      "RE": 1943,
      "oncle": 1944,
      "inqui": 1945,
      "sera": 1946,
      "shou": 1947,
      "fell": 1948,
      "ied": 1949,
      "als": 1950,
      "island": 1951,
      "partie": 1952,
      "ete": 1953,
      "along": 1954,
      "cab": 1955,
      "solu": 1956,
      "rée": 1957,
      "vos": 1958,
      "Laurent": 1959,
      "sever": 1960,
      "orge": 1961,
      "lut": 1962,
      "êt": 1963,
      "ener": 1964,
      "swe": 1965,
      "lot": 1966,
      "Jean": 1967,
      "bruit": 1968,
      "month": 1969,
      "Darcy": 1970,
      "belle": 1971,
      "première": 1972,
      "sorte": 1973,
      "ayant": 1974,
      "ground": 1975,
      "pier": 1976,
      "telle": 1977,
      "arding": 1978,
      "dam": 1979,
      "ray": 1980,
      "uncle": 1981,
      "nifi": 1982,
      "bientôt": 1983,
      "âmes": 1984,
      "nez": 1985,
      "high": 1986,
      "arms": 1987,
      "sail": 1988,
      "iens": 1989,
      "lles": 1990,
      "andis": 1991,
      "ager": 1992,
      "voit": 1993,
      "ster": 1994,
      "yed": 1995,
      "fully": 1996,
      "above": 1997,
      "regar": 1998,
      "continued": 1999,
      "sav": 2000,
      "attention": 2001,
      "bé": 2002,
      "idea": 2003,
      "diffi": 2004,
      "aperç": 2005,
      "wish": 2006,
      "quent": 2007,
      "Ver": 2008,
      "couver": 2009,
      "oire": 2010,
      "tenait": 2011,
      "dor": 2012,
      "case": 2013,
      "cheval": 2014,
      "arris": 2015,
      "veille": 2016,
      "boat": 2017,
      "iers": 2018,
      "éle": 2019,
      "tro": 2020,
      "condit": 2021,
      "remained": 2022,
      "difficul": 2023,
      "lin": 2024,
      "acce": 2025,
      "returned": 2026,
      "known": 2027,
      "lady": 2028,
      "lost": 2029,
      "visit": 2030,
      "ira": 2031,
      "confi": 2032,
      "Harding": 2033,
      "believe": 2034,
      "Ho": 2035,
      "hours": 2036,
      "aucun": 2037,
      "inf": 2038,
      "ains": 2039,
      "fice": 2040,
      "imagin": 2041,
      "longtemps": 2042,
      "ER": 2043,
      "Why": 2044,
      "âme": 2045,
      "wing": 2046,
      "cus": 2047,
      "rose": 2048,
      "wind": 2049,
      "Bes": 2050,
      "aves": 2051,
      "pus": 2052,
      "agne": 2053,
      "chester": 2054,
      "distance": 2055,
      "ming": 2056,
      "reason": 2057,
      "cks": 2058,
      "Harris": 2059,
      "fas": 2060,
      "Dans": 2061,
      "sun": 2062,
      "laugh": 2063,
      "aking": 2064,
      "suf": 2065,
      "souff": 2066,
      "till": 2067,
      "chair": 2068,
      "hope": 2069,
      "extr": 2070,
      "ounded": 2071,
      "batt": 2072,
      "hors": 2073,
      "moy": 2074,
      "kept": 2075,
      "mus": 2076,
      "won": 2077,
      "friends": 2078,
      "gle": 2079,
      "ders": 2080,
      "Cep": 2081,
      "Do": 2082,
      "situ": 2083,
      "ème": 2084,
      "aucune": 2085,
      "ates": 2086,
      "dest": 2087,
      "cked": 2088,
      "gy": 2089,
      "Cependant": 2090,
      "ron": 2091,
      "mont": 2092,
      "Har": 2093,
      "Passe": 2094,
      "ding": 2095,
      "teau": 2096,
      "followed": 2097,
      "Gran": 2098,
      "»,": 2099,
      "ety": 2100,
      "times": 2101,
      "propos": 2102,
      "Lord": 2103,
      "nant": 2104,
      "nav": 2105,
      "rapp": 2106,
      "occasion": 2107,
      "écr": 2108,
      "vieux": 2109,
      "change": 2110,
      "sm": 2111,
      "énie": 2112,
      "happy": 2113,
      "AP": 2114,
      "thus": 2115,
      "eurs": 2116,
      "vain": 2117,
      "soci": 2118,
      "danger": 2119,
      "imes": 2120,
      "voyait": 2121,
      "gener": 2122,
      "Rochester": 2123,
      "Miss": 2124,
      "mment": 2125,
      "colon": 2126,
      "home": 2127,
      "Passepartout": 2128,
      "wan": 2129,
      "money": 2130,
      "ount": 2131,
      "plu": 2132,
      "um": 2133,
      "avons": 2134,
      "chesse": 2135,
      "Em": 2136,
      "Ge": 2137,
      "couv": 2138,
      "sens": 2139,
      "huit": 2140,
      "motion": 2141,
      "making": 2142,
      "trouvait": 2143,
      "chance": 2144,
      "Pier": 2145,
      "prob": 2146,
      "Bo": 2147,
      "covered": 2148,
      "acieux": 2149,
      "One": 2150,
      "furent": 2151,
      "simple": 2152,
      "medi": 2153,
      "comte": 2154,
      "Quel": 2155,
      "brother": 2156,
      "façon": 2157,
      "ieurs": 2158,
      "foot": 2159,
      "engine": 2160,
      "House": 2161,
      "often": 2162,
      "short": 2163,
      "white": 2164,
      "listen": 2165,
      "œur": 2166,
      "lia": 2167,
      "fied": 2168,
      "Can": 2169,
      "Engl": 2170,
      "cold": 2171,
      "secret": 2172,
      "Now": 2173,
      "Captain": 2174,
      "small": 2175,
      "entendre": 2176,
      "understand": 2177,
      "haute": 2178,
      "ible": 2179,
      "allow": 2180,
      "besoin": 2181,
      "autour": 2182,
      "horse": 2183,
      "affaire": 2184,
      "ilde": 2185,
      "conna": 2186,
      "emplo": 2187,
      "riage": 2188,
      "passé": 2189,
      "cation": 2190,
      "lnes": 2191,
      "fallait": 2192,
      "parut": 2193,
      "surpris": 2194,
      "comple": 2195,
      "cependant": 2196,
      "pru": 2197,
      "held": 2198,
      "dri": 2199,
      "necess": 2200,
      "ained": 2201,
      "answered": 2202,
      "pul": 2203,
      "oubli": 2204,
      "content": 2205,
      "clair": 2206,
      "laquelle": 2207,
      "resse": 2208,
      "gentleman": 2209,
      "gard": 2210,
      "lende": 2211,
      "reme": 2212,
      "excla": 2213,
      "matter": 2214,
      "ôte": 2215,
      "nement": 2216,
      "power": 2217,
      "ience": 2218,
      "autant": 2219,
      "entra": 2220,
      "....": 2221,
      "lendemain": 2222,
      "aise": 2223,
      "became": 2224,
      "Alice": 2225,
      "sight": 2226,
      "plain": 2227,
      "fellow": 2228,
      "bene": 2229,
      "vag": 2230,
      "andide": 2231,
      "noir": 2232,
      "corps": 2233,
      "cannot": 2234,
      "dle": 2235,
      "grands": 2236,
      "tard": 2237,
      "cours": 2238,
      "sire": 2239,
      "Meau": 2240,
      "rup": 2241,
      "rière": 2242,
      "Meaulnes": 2243,
      "tend": 2244,
      "lier": 2245,
      "Candide": 2246,
      "supp": 2247,
      "Son": 2248,
      "ele": 2249,
      "fav": 2250,
      "para": 2251,
      "formed": 2252,
      "antes": 2253,
      "passage": 2254,
      "husband": 2255,
      "pal": 2256,
      "ceux": 2257,
      "fiel": 2258,
      "lorsqu": 2259,
      "chercher": 2260,
      "descend": 2261,
      "CHAP": 2262,
      "repe": 2263,
      "others": 2264,
      "din": 2265,
      "lace": 2266,
      "Cather": 2267,
      "opened": 2268,
      "Emma": 2269,
      "Catherine": 2270,
      "eye": 2271,
      "seig": 2272,
      "smi": 2273,
      "hile": 2274,
      "best": 2275,
      "savoir": 2276,
      "escap": 2277,
      "added": 2278,
      "joy": 2279,
      "Math": 2280,
      "says": 2281,
      "toire": 2282,
      "trouble": 2283,
      "Af": 2284,
      "clu": 2285,
      "tandis": 2286,
      "aurais": 2287,
      "croy": 2288,
      "Mathilde": 2289,
      "chau": 2290,
      "peur": 2291,
      "pense": 2292,
      "ram": 2293,
      "parce": 2294,
      "longue": 2295,
      "Joh": 2296,
      "Ben": 2297,
      "donné": 2298,
      "taking": 2299,
      "glo": 2300,
      "plaisir": 2301,
      "Don": 2302,
      "souvent": 2303,
      "vas": 2304,
      "immen": 2305,
      "ignor": 2306,
      "anged": 2307,
      "until": 2308,
      "agit": 2309,
      "surprise": 2310,
      "Sa": 2311,
      "ls": 2312,
      "bonheur": 2313,
      "admir": 2314,
      "fau": 2315,
      "lang": 2316,
      "perdu": 2317,
      "pâ": 2318,
      "pis": 2319,
      "really": 2320,
      "dead": 2321,
      "illi": 2322,
      "pan": 2323,
      "dered": 2324,
      "plusieurs": 2325,
      "pap": 2326,
      "trouva": 2327,
      "After": 2328,
      "fre": 2329,
      "true": 2330,
      "duchesse": 2331,
      "termin": 2332,
      "stri": 2333,
      "surface": 2334,
      "action": 2335,
      "Duches": 2336,
      "Bonacieux": 2337,
      "John": 2338,
      "sound": 2339,
      "diffe": 2340,
      "fs": 2341,
      "mean": 2342,
      "compl": 2343,
      "élo": 2344,
      "need": 2345,
      "sitôt": 2346,
      "Lo": 2347,
      "parais": 2348,
      "voilà": 2349,
      "visage": 2350,
      "ctions": 2351,
      "Harbert": 2352,
      "sû": 2353,
      "uni": 2354,
      "pale": 2355,
      "ume": 2356,
      "femmes": 2357,
      "Herbert": 2358,
      "natur": 2359,
      "Mole": 2360,
      "gs": 2361,
      "mad": 2362,
      "deep": 2363,
      "thin": 2364,
      "ute": 2365,
      "liqu": 2366,
      "ably": 2367,
      "carried": 2368,
      "entered": 2369,
      "chap": 2370,
      "answer": 2371,
      "dies": 2372,
      "fection": 2373,
      "reporter": 2374,
      "sy": 2375,
      "clear": 2376,
      "camp": 2377,
      "court": 2378,
      "istence": 2379,
      "several": 2380,
      "gro": 2381,
      "livres": 2382,
      "mots": 2383,
      "super": 2384,
      "tic": 2385,
      "villa": 2386,
      "ingénie": 2387,
      "prince": 2388,
      "ution": 2389,
      "Go": 2390,
      "mission": 2391,
      "Fran": 2392,
      "Land": 2393,
      "Ren": 2394,
      "jest": 2395,
      "ingoire": 2396,
      "voulait": 2397,
      "family": 2398,
      "Gringoire": 2399,
      "chev": 2400,
      "bran": 2401,
      "why": 2402,
      "jeunes": 2403,
      "dés": 2404,
      "déci": 2405,
      "cli": 2406,
      "fils": 2407,
      "exc": 2408,
      "las": 2409,
      "vil": 2410,
      "enfants": 2411,
      "sister": 2412,
      "écl": 2413,
      "reç": 2414,
      "acle": 2415,
      "pon": 2416,
      "plate": 2417,
      "cast": 2418,
      "−−": 2419,
      "etimes": 2420,
      "shore": 2421,
      "women": 2422,
      "ror": 2423,
      "suddenly": 2424,
      "ral": 2425,
      "désir": 2426,
      "during": 2427,
      "atta": 2428,
      "geait": 2429,
      "service": 2430,
      "Granite": 2431,
      "qual": 2432,
      "past": 2433,
      "anx": 2434,
      "cents": 2435,
      "mauvais": 2436,
      "engineer": 2437,
      "live": 2438,
      "Ayr": 2439,
      "oles": 2440,
      "remarqu": 2441,
      "laiss": 2442,
      "els": 2443,
      "écout": 2444,
      "Ayrton": 2445,
      "Prince": 2446,
      "ha": 2447,
      "quant": 2448,
      "assi": 2449,
      "opin": 2450,
      "airs": 2451,
      "rue": 2452,
      "heav": 2453,
      "uns": 2454,
      "ingley": 2455,
      "convi": 2456,
      "beneath": 2457,
      "aime": 2458,
      "Bingley": 2459,
      "tw": 2460,
      "bring": 2461,
      "spoke": 2462,
      "instru": 2463,
      "famille": 2464,
      "existence": 2465,
      "eight": 2466,
      "sum": 2467,
      "strange": 2468,
      "mouth": 2469,
      "dait": 2470,
      "thre": 2471,
      "serv": 2472,
      "zed": 2473,
      "ised": 2474,
      "mere": 2475,
      "ablement": 2476,
      "expression": 2477,
      "Duchessa": 2478,
      "épau": 2479,
      "aver": 2480,
      "connu": 2481,
      "spir": 2482,
      "aie": 2483,
      "ffé": 2484,
      "ordre": 2485,
      "douce": 2486,
      "Bennet": 2487,
      "tingu": 2488,
      "shoul": 2489,
      "avan": 2490,
      "aval": 2491,
      "partir": 2492,
      "pensée": 2493,
      "laisser": 2494,
      "énér": 2495,
      "envir": 2496,
      "conce": 2497,
      "bais": 2498,
      "Fel": 2499,
      "perce": 2500,
      "war": 2501,
      "hes": 2502,
      "chet": 2503,
      "manner": 2504,
      "whether": 2505,
      "lis": 2506,
      "real": 2507,
      "enter": 2508,
      "lac": 2509,
      "break": 2510,
      "sleep": 2511,
      "Be": 2512,
      "iron": 2513,
      "forme": 2514,
      "pourtant": 2515,
      "worth": 2516,
      "nées": 2517,
      "human": 2518,
      "pleasure": 2519,
      "fis": 2520,
      "âce": 2521,
      "deli": 2522,
      "ingénieur": 2523,
      "cteur": 2524,
      "mée": 2525,
      "nouvelle": 2526,
      "Hol": 2527,
      "dge": 2528,
      "absolu": 2529,
      "fif": 2530,
      "seeing": 2531,
      "George": 2532,
      "With": 2533,
      "èce": 2534,
      "town": 2535,
      "extre": 2536,
      "dez": 2537,
      "train": 2538,
      "become": 2539,
      "ciel": 2540,
      "Rê": 2541,
      "either": 2542,
      "ping": 2543,
      "conse": 2544,
      "close": 2545,
      "Jim": 2546,
      "vin": 2547,
      "îtres": 2548,
      "help": 2549,
      "Rênal": 2550,
      "yer": 2551,
      "érie": 2552,
      "ême": 2553,
      "frère": 2554,
      "received": 2555,
      "bil": 2556,
      "rus": 2557,
      "mul": 2558,
      "horiz": 2559,
      "ular": 2560,
      "ajouta": 2561,
      "Renal": 2562,
      "oux": 2563,
      "derrière": 2564,
      "Enfin": 2565,
      "ual": 2566,
      "dep": 2567,
      "pourquoi": 2568,
      "posed": 2569,
      "earth": 2570,
      "ref": 2571,
      "command": 2572,
      "within": 2573,
      "vident": 2574,
      "placed": 2575,
      "consider": 2576,
      "leng": 2577,
      "oud": 2578,
      "means": 2579,
      "perfect": 2580,
      "lég": 2581,
      "quis": 2582,
      "surtout": 2583,
      "aston": 2584,
      "begin": 2585,
      "_Nautilus": 2586,
      "irait": 2587,
      "soleil": 2588,
      "_Nautilus_": 2589,
      "saying": 2590,
      "circu": 2591,
      "piece": 2592,
      "France": 2593,
      "year": 2594,
      "sommes": 2595,
      "froid": 2596,
      "poir": 2597,
      "strong": 2598,
      "ching": 2599,
      "wee": 2600,
      "Cam": 2601,
      "cking": 2602,
      "demander": 2603,
      "cie": 2604,
      "yes": 2605,
      "ément": 2606,
      "lequel": 2607,
      "vide": 2608,
      "book": 2609,
      "rem": 2610,
      "isson": 2611,
      "ney": 2612,
      "posses": 2613,
      "garçon": 2614,
      "yourself": 2615,
      "connaiss": 2616,
      "imed": 2617,
      "!»<": 2618,
      "spr": 2619,
      "cœur": 2620,
      "trac": 2621,
      "star": 2622,
      "boy": 2623,
      "stopped": 2624,
      "connaître": 2625,
      "certaine": 2626,
      "assu": 2627,
      "entendu": 2628,
      "vérité": 2629,
      "cam": 2630,
      "dau": 2631,
      "Comme": 2632,
      "cing": 2633,
      "trom": 2634,
      "bris": 2635,
      "considé": 2636,
      "cré": 2637,
      "leva": 2638,
      "children": 2639,
      "fai": 2640,
      "han": 2641,
      "kes": 2642,
      "somme": 2643,
      "magnifi": 2644,
      "length": 2645,
      "cous": 2646,
      "génér": 2647,
      "salle": 2648,
      "fright": 2649,
      "Comment": 2650,
      "excell": 2651,
      "immense": 2652,
      "Felton": 2653,
      "èse": 2654,
      "alla": 2655,
      "plut": 2656,
      "ussi": 2657,
      "maîtres": 2658,
      "regardait": 2659,
      "moiselle": 2660,
      "ased": 2661,
      "ously": 2662,
      "abl": 2663,
      "pected": 2664,
      "joie": 2665,
      "moyen": 2666,
      "iere": 2667,
      "immedi": 2668,
      "continua": 2669,
      "Hen": 2670,
      "animal": 2671,
      "riv": 2672,
      "sive": 2673,
      "paroles": 2674,
      "dernier": 2675,
      "Ly": 2676,
      "Per": 2677,
      "aged": 2678,
      "coups": 2679,
      "science": 2680,
      "iller": 2681,
      "condition": 2682,
      "ring": 2683,
      "sembla": 2684,
      "pair": 2685,
      "justice": 2686,
      "Pendant": 2687,
      "fé": 2688,
      "atte": 2689,
      "allu": 2690,
      "pron": 2691,
      "pub": 2692,
      "Ces": 2693,
      "Des": 2694,
      "fish": 2695,
      "hé": 2696,
      "châ": 2697,
      "pret": 2698,
      "moun": 2699,
      "îner": 2700,
      "lips": 2701,
      "direction": 2702,
      "ordinaire": 2703,
      "ah": 2704,
      "nombre": 2705,
      "lear": 2706,
      "quement": 2707,
      "beaut": 2708,
      "board": 2709,
      "gagn": 2710,
      "rain": 2711,
      "intel": 2712,
      "resh": 2713,
      "line": 2714,
      "crain": 2715,
      "lets": 2716,
      "préci": 2717,
      "ws": 2718,
      "oui": 2719,
      "parole": 2720,
      "acher": 2721,
      "horri": 2722,
      "Holmes": 2723,
      "public": 2724,
      "teen": 2725,
      "petits": 2726,
      "profonde": 2727,
      "eded": 2728,
      "remar": 2729,
      "hô": 2730,
      "ifi": 2731,
      "scar": 2732,
      "urch": 2733,
      "jur": 2734,
      "envoy": 2735,
      "drew": 2736,
      "assis": 2737,
      "vient": 2738,
      "marin": 2739,
      "vely": 2740,
      "writ": 2741,
      "reached": 2742,
      "tears": 2743,
      "état": 2744,
      "grave": 2745,
      "complete": 2746,
      "Here": 2747,
      "qué": 2748,
      "else": 2749,
      "pouvais": 2750,
      "opinion": 2751,
      "Est": 2752,
      "impat": 2753,
      "croire": 2754,
      "Conte": 2755,
      "tranquille": 2756,
      "voiture": 2757,
      "thro": 2758,
      "dut": 2759,
      "itself": 2760,
      "distingu": 2761,
      "cture": 2762,
      "double": 2763,
      "garde": 2764,
      "except": 2765,
      "eaux": 2766,
      "voulu": 2767,
      "éclat": 2768,
      "mouve": 2769,
      "rê": 2770,
      "ctor": 2771,
      "examin": 2772,
      "horizon": 2773,
      "prouv": 2774,
      "roit": 2775,
      "moments": 2776,
      "certainly": 2777,
      "fast": 2778,
      "var": 2779,
      "fenêtre": 2780,
      "Lu": 2781,
      "meet": 2782,
      "venue": 2783,
      "compte": 2784,
      "field": 2785,
      "savait": 2786,
      "avou": 2787,
      "ries": 2788,
      "affection": 2789,
      "ents": 2790,
      "offici": 2791,
      "aign": 2792,
      "ours": 2793,
      "noble": 2794,
      "aussitôt": 2795,
      "thoughts": 2796,
      "necessary": 2797,
      "Camille": 2798,
      "daugh": 2799,
      "Mer": 2800,
      "tone": 2801,
      "appa": 2802,
      "étrange": 2803,
      "lt": 2804,
      "incre": 2805,
      "asi": 2806,
      "ili": 2807,
      "sie": 2808,
      "quick": 2809,
      "polit": 2810,
      "avantage": 2811,
      "droit": 2812,
      "Après": 2813,
      "lus": 2814,
      "phe": 2815,
      "esti": 2816,
      "pouvoir": 2817,
      "seigneur": 2818,
      "natural": 2819,
      "commun": 2820,
      "wished": 2821,
      "déses": 2822,
      "heureuse": 2823,
      "exclaimed": 2824,
      "Tu": 2825,
      "resol": 2826,
      "donn": 2827,
      "regret": 2828,
      "vieille": 2829,
      "arriver": 2830,
      "ized": 2831,
      "stay": 2832,
      "spect": 2833,
      "Cela": 2834,
      "itié": 2835,
      "blow": 2836,
      "bad": 2837,
      "ended": 2838,
      "urer": 2839,
      "tress": 2840,
      "tried": 2841,
      "gri": 2842,
      "mait": 2843,
      "refus": 2844,
      "chan": 2845,
      "phy": 2846,
      "situation": 2847,
      "Po": 2848,
      "tort": 2849,
      "account": 2850,
      "Or": 2851,
      "slow": 2852,
      "standing": 2853,
      "trees": 2854,
      "fier": 2855,
      "glass": 2856,
      "IT": 2857,
      "côte": 2858,
      "lev": 2859,
      "tirer": 2860,
      "Let": 2861,
      "burn": 2862,
      "hair": 2863,
      "ones": 2864,
      "princi": 2865,
      "arrived": 2866,
      "accus": 2867,
      "rage": 2868,
      "honneur": 2869,
      "nage": 2870,
      "uve": 2871,
      "bear": 2872,
      "saire": 2873,
      "therefore": 2874,
      "larmes": 2875,
      "embarr": 2876,
      "wanted": 2877,
      "étant": 2878,
      "rouge": 2879,
      "cular": 2880,
      "bi": 2881,
      "ross": 2882,
      "insi": 2883,
      "dressed": 2884,
      "ots": 2885,
      "grâce": 2886,
      "série": 2887,
      "sometimes": 2888,
      "trouve": 2889,
      "struck": 2890,
      "vite": 2891,
      "tren": 2892,
      "grou": 2893,
      "propre": 2894,
      "accord": 2895,
      "Gu": 2896,
      "lies": 2897,
      "quiet": 2898,
      "carry": 2899,
      "dents": 2900,
      "promen": 2901,
      "ase": 2902,
      "sett": 2903,
      "ène": 2904,
      "sept": 2905,
      "rester": 2906,
      "crow": 2907,
      "travail": 2908,
      "talk": 2909,
      "village": 2910,
      "afin": 2911,
      "étions": 2912,
      "impres": 2913,
      "beauti": 2914,
      "Pierre": 2915,
      "Fix": 2916,
      "rire": 2917,
      "lumi": 2918,
      "compagnons": 2919,
      "histoire": 2920,
      "charge": 2921,
      "tended": 2922,
      "sentiment": 2923,
      "companions": 2924,
      "aisse": 2925,
      "trouvé": 2926,
      "From": 2927,
      "kne": 2928,
      "soul": 2929,
      "murmur": 2930,
      "éloign": 2931,
      "Su": 2932,
      "bey": 2933,
      "lue": 2934,
      "malgré": 2935,
      "rapide": 2936,
      "plutôt": 2937,
      "due": 2938,
      "grat": 2939,
      "business": 2940,
      "sad": 2941,
      "fered": 2942,
      "Votre": 2943,
      "Lou": 2944,
      "ical": 2945,
      "oe": 2946,
      "passa": 2947,
      "manger": 2948,
      "gentlemen": 2949,
      "ake": 2950,
      "bâ": 2951,
      "libert": 2952,
      "refle": 2953,
      "ellement": 2954,
      "obst": 2955,
      "essay": 2956,
      "dès": 2957,
      "sw": 2958,
      "whis": 2959,
      "itable": 2960,
      "former": 2961,
      "fini": 2962,
      "environ": 2963,
      "pourrait": 2964,
      "These": 2965,
      "closed": 2966,
      "immediately": 2967,
      "remon": 2968,
      "repro": 2969,
      "manière": 2970,
      "dispos": 2971,
      "rant": 2972,
      "Maheu": 2973,
      "months": 2974,
      "culi": 2975,
      "gau": 2976,
      "),": 2977,
      "flow": 2978,
      "ète": 2979,
      "chie": 2980,
      "adres": 2981,
      "montre": 2982,
      "company": 2983,
      "Phile": 2984,
      "ales": 2985,
      "cach": 2986,
      "inct": 2987,
      "neither": 2988,
      "parfaite": 2989,
      "miles": 2990,
      "brus": 2991,
      "fortun": 2992,
      "silent": 2993,
      "salon": 2994,
      "pisto": 2995,
      "extreme": 2996,
      "Phileas": 2997,
      "TH": 2998,
      "iff": 2999,
      "îmes": 3000,
      "serious": 3001,
      "incl": 3002,
      "cris": 3003,
      "violent": 3004,
      "gest": 3005,
      "hing": 3006,
      "invit": 3007,
      "chir": 3008,
      "porter": 3009,
      "rappe": 3010,
      "chac": 3011,
      "modo": 3012,
      "rés": 3013,
      "police": 3014,
      "big": 3015,
      "reur": 3016,
      "cell": 3017,
      "èrement": 3018,
      "calm": 3019,
      "!'": 3020,
      "Lond": 3021,
      "agré": 3022,
      "journée": 3023,
      "object": 3024,
      "Quasi": 3025,
      "Londres": 3026,
      "Quasimodo": 3027,
      "Canad": 3028,
      "ites": 3029,
      "happiness": 3030,
      "bir": 3031,
      "ior": 3032,
      "regarda": 3033,
      "chien": 3034,
      "capable": 3035,
      "eat": 3036,
      "nar": 3037,
      "lever": 3038,
      "lying": 3039,
      "moved": 3040,
      "mach": 3041,
      "gold": 3042,
      "cria": 3043,
      "tir": 3044,
      "voulez": 3045,
      "Nab": 3046,
      "smo": 3047,
      "utter": 3048,
      "mala": 3049,
      "Quant": 3050,
      "obliged": 3051,
      "ina": 3052,
      "iter": 3053,
      "cry": 3054,
      "suppose": 3055,
      "quitter": 3056,
      "LE": 3057,
      "dy": 3058,
      "alement": 3059,
      "send": 3060,
      "éclair": 3061,
      "reach": 3062,
      "stone": 3063,
      "crime": 3064,
      "sortir": 3065,
      "blood": 3066,
      "TER": 3067,
      "fair": 3068,
      "servant": 3069,
      "souvenir": 3070,
      "dress": 3071,
      "ades": 3072,
      "grow": 3073,
      "ires": 3074,
      "zz": 3075,
      "gea": 3076,
      "play": 3077,
      "race": 3078,
      "river": 3079,
      "noise": 3080,
      "hui": 3081,
      "érieur": 3082,
      "conv": 3083,
      "coll": 3084,
      "maine": 3085,
      "compren": 3086,
      "circum": 3087,
      "pretty": 3088,
      "lumière": 3089,
      "lived": 3090,
      "éter": 3091,
      "minis": 3092,
      "soup": 3093,
      "sées": 3094,
      "By": 3095,
      "savez": 3096,
      "atures": 3097,
      "viend": 3098,
      "jourd": 3099,
      "plein": 3100,
      "feeling": 3101,
      "different": 3102,
      "Bu": 3103,
      "IN": 3104,
      "êtres": 3105,
      "stup": 3106,
      "passait": 3107,
      "uit": 3108,
      "inted": 3109,
      "pardon": 3110,
      "tempt": 3111,
      "Lin": 3112,
      "paru": 3113,
      "rents": 3114,
      "Sur": 3115,
      "égl": 3116,
      "assur": 3117,
      "later": 3118,
      "deci": 3119,
      "vivre": 3120,
      "faction": 3121,
      "neigh": 3122,
      "sujet": 3123,
      "plant": 3124,
      "march": 3125,
      "coln": 3126,
      "Neb": 3127,
      "dame": 3128,
      "rang": 3129,
      "extra": 3130,
      "box": 3131,
      "calme": 3132,
      "observ": 3133,
      "Mlle": 3134,
      "fresh": 3135,
      "quait": 3136,
      "passe": 3137,
      "attendre": 3138,
      "sieurs": 3139,
      "sombre": 3140,
      "happened": 3141,
      "top": 3142,
      "beautiful": 3143,
      "Lincoln": 3144,
      "osse": 3145,
      "aster": 3146,
      "living": 3147,
      "grav": 3148,
      "dream": 3149,
      "empê": 3150,
      "walked": 3151,
      "easy": 3152,
      "repeated": 3153,
      "flé": 3154,
      "apper": 3155,
      "veill": 3156,
      "velop": 3157,
      "Car": 3158,
      "adv": 3159,
      "colons": 3160,
      "observed": 3161,
      "Voilà": 3162,
      "venture": 3163,
      "remember": 3164,
      "smile": 3165,
      "scr": 3166,
      "ison": 3167,
      "avent": 3168,
      "dia": 3169,
      "fraid": 3170,
      "ia": 3171,
      "répondre": 3172,
      "suivre": 3173,
      "bouche": 3174,
      "Come": 3175,
      "ondon": 3176,
      "ombre": 3177,
      "doit": 3178,
      "morrow": 3179,
      "waiting": 3180,
      "afraid": 3181,
      "fil": 3182,
      "ja": 3183,
      "around": 3184,
      "tomber": 3185,
      "étend": 3186,
      "Louis": 3187,
      "18": 3188,
      "sli": 3189,
      "endroit": 3190,
      "expect": 3191,
      "marche": 3192,
      "érèse": 3193,
      "aperce": 3194,
      "Thérèse": 3195,
      "lèvres": 3196,
      "aî": 3197,
      "deal": 3198,
      "offi": 3199,
      "church": 3200,
      "concer": 3201,
      "colle": 3202,
      "carriage": 3203,
      "Notre": 3204,
      "effor": 3205,
      "Ph": 3206,
      "aded": 3207,
      "èle": 3208,
      "lique": 3209,
      "gues": 3210,
      "juste": 3211,
      "sailor": 3212,
      "gate": 3213,
      "gouver": 3214,
      "illed": 3215,
      "quels": 3216,
      "breath": 3217,
      "sourire": 3218,
      "Fer": 3219,
      "London": 3220,
      "Me": 3221,
      "ième": 3222,
      "forget": 3223,
      "général": 3224,
      "AN": 3225,
      "ôle": 3226,
      "degre": 3227,
      "entire": 3228,
      "law": 3229,
      "broken": 3230,
      "extrême": 3231,
      "squ": 3232,
      "avions": 3233,
      "neu": 3234,
      "ghted": 3235,
      "bread": 3236,
      "ON": 3237,
      "Ri": 3238,
      "ensemble": 3239,
      "courant": 3240,
      "wild": 3241,
      "exact": 3242,
      "projet": 3243,
      "présence": 3244,
      "Plan": 3245,
      "dîner": 3246,
      "ric": 3247,
      "stop": 3248,
      "effect": 3249,
      "daughter": 3250,
      "hér": 3251,
      "ités": 3252,
      "ists": 3253,
      "thick": 3254,
      "vez": 3255,
      "entrer": 3256,
      "streng": 3257,
      "espér": 3258,
      "horrible": 3259,
      "Top": 3260,
      "tas": 3261,
      "ering": 3262,
      "faites": 3263,
      "restait": 3264,
      "Therese": 3265,
      "faute": 3266,
      "vary": 3267,
      "leaving": 3268,
      "omb": 3269,
      "livre": 3270,
      "shut": 3271,
      "rav": 3272,
      "faisant": 3273,
      "heavy": 3274,
      "ball": 3275,
      "ress": 3276,
      "puisque": 3277,
      "slight": 3278,
      "ienne": 3279,
      "shar": 3280,
      "oppos": 3281,
      "essor": 3282,
      "charac": 3283,
      "embar": 3284,
      "accep": 3285,
      "miss": 3286,
      "annon": 3287,
      "espe": 3288,
      "loved": 3289,
      "belong": 3290,
      "Planchet": 3291,
      "alous": 3292,
      "Not": 3293,
      "However": 3294,
      "Gri": 3295,
      "Your": 3296,
      "cad": 3297,
      "cée": 3298,
      "ennu": 3299,
      "aujourd": 3300,
      "illon": 3301,
      "presence": 3302,
      "paraissait": 3303,
      "hous": 3304,
      "thé": 3305,
      "anti": 3306,
      "liers": 3307,
      "minute": 3308,
      "hasard": 3309,
      "regarder": 3310,
      ",--": 3311,
      "ture": 3312,
      "çons": 3313,
      "laid": 3314,
      "state": 3315,
      "gram": 3316,
      "giving": 3317,
      "English": 3318,
      "connaissance": 3319,
      "scarce": 3320,
      "demeur": 3321,
      "resta": 3322,
      "forward": 3323,
      "fool": 3324,
      "sentait": 3325,
      "vague": 3326,
      "dos": 3327,
      "meille": 3328,
      "abs": 3329,
      "conven": 3330,
      "donnait": 3331,
      "turning": 3332,
      "mousquet": 3333,
      "Che": 3334,
      "usion": 3335,
      "acti": 3336,
      "rock": 3337,
      "Chap": 3338,
      "trente": 3339,
      "fan": 3340,
      "cover": 3341,
      "fray": 3342,
      "midst": 3343,
      "furn": 3344,
      "idi": 3345,
      "tez": 3346,
      "cesse": 3347,
      "marquis": 3348,
      "mariage": 3349,
      "burst": 3350,
      "DE": 3351,
      "dites": 3352,
      "raised": 3353,
      "Pro": 3354,
      "tion": 3355,
      "vap": 3356,
      "across": 3357,
      "filled": 3358,
      "foule": 3359,
      "circumst": 3360,
      "église": 3361,
      "tap": 3362,
      "ung": 3363,
      "milles": 3364,
      "lamp": 3365,
      "ago": 3366,
      "donna": 3367,
      "Ad": 3368,
      "Ex": 3369,
      "cost": 3370,
      "ually": 3371,
      "wret": 3372,
      "appu": 3373,
      "rench": 3374,
      "venaient": 3375,
      "proc": 3376,
      "drait": 3377,
      "step": 3378,
      "middle": 3379,
      "bly": 3380,
      "warm": 3381,
      "rich": 3382,
      "provis": 3383,
      "tesse": 3384,
      "priest": 3385,
      "dernière": 3386,
      "surprised": 3387,
      "excellent": 3388,
      "gauche": 3389,
      "Jam": 3390,
      "event": 3391,
      "pin": 3392,
      "çais": 3393,
      "arbres": 3394,
      "solit": 3395,
      "reply": 3396,
      "voyant": 3397,
      "énor": 3398,
      "Pourquoi": 3399,
      "thirty": 3400,
      "week": 3401,
      "Nor": 3402,
      "caut": 3403,
      "mise": 3404,
      "isait": 3405,
      "rier": 3406,
      "rencontre": 3407,
      "Majest": 3408,
      "effort": 3409,
      "strength": 3410,
      "az": 3411,
      "pent": 3412,
      "ensuite": 3413,
      "ater": 3414,
      "usual": 3415,
      "parlait": 3416,
      "perdre": 3417,
      "quelqu": 3418,
      "prevent": 3419,
      "grandes": 3420,
      "Island": 3421,
      "Bovary": 3422,
      "Wick": 3423,
      "parmi": 3424,
      "penser": 3425,
      "speaking": 3426,
      "phras": 3427,
      "sult": 3428,
      "CHAPTER": 3429,
      "mouvement": 3430,
      "antly": 3431,
      "exper": 3432,
      "brave": 3433,
      "direct": 3434,
      "vessel": 3435,
      "demande": 3436,
      "camar": 3437,
      "mai": 3438,
      "iné": 3439,
      "lead": 3440,
      "diri": 3441,
      "following": 3442,
      "flot": 3443,
      "walk": 3444,
      "Wickham": 3445,
      "Sans": 3446,
      "fing": 3447,
      "raient": 3448,
      "fight": 3449,
      "immo": 3450,
      "drawing": 3451,
      "chevaux": 3452,
      "filles": 3453,
      "gni": 3454,
      "entière": 3455,
      "thor": 3456,
      "latter": 3457,
      "singuli": 3458,
      "thinking": 3459,
      "ios": 3460,
      "ingly": 3461,
      "comes": 3462,
      "arer": 3463,
      "merci": 3464,
      "miser": 3465,
      "caught": 3466,
      "truth": 3467,
      "late": 3468,
      "ceeded": 3469,
      "duc": 3470,
      "stor": 3471,
      "spite": 3472,
      "particular": 3473,
      "commence": 3474,
      "?'<": 3475,
      "gie": 3476,
      "escal": 3477,
      "common": 3478,
      "découv": 3479,
      "glance": 3480,
      "pierre": 3481,
      "AR": 3482,
      "basse": 3483,
      "lour": 3484,
      "ope": 3485,
      "donne": 3486,
      "clar": 3487,
      "number": 3488,
      "shop": 3489,
      "sauv": 3490,
      "crowd": 3491,
      "Li": 3492,
      "pun": 3493,
      "armes": 3494,
      "doing": 3495,
      "maîtresse": 3496,
      "gun": 3497,
      "iel": 3498,
      "chasse": 3499,
      "creature": 3500,
      "juge": 3501,
      "fixed": 3502,
      "escape": 3503,
      "Tre": 3504,
      "dain": 3505,
      "ias": 3506,
      "nour": 3507,
      "éci": 3508,
      "ank": 3509,
      "del": 3510,
      "forgot": 3511,
      "soli": 3512,
      "Never": 3513,
      "cles": 3514,
      "siè": 3515,
      "story": 3516,
      "persu": 3517,
      "arriva": 3518,
      "accept": 3519,
      "dinner": 3520,
      "chief": 3521,
      "Hom": 3522,
      "fon": 3523,
      "scur": 3524,
      "chée": 3525,
      "attent": 3526,
      "médi": 3527,
      "Lors": 3528,
      "bag": 3529,
      "doig": 3530,
      "corral": 3531,
      "view": 3532,
      "habitu": 3533,
      "bottom": 3534,
      "cand": 3535,
      "ice": 3536,
      "quante": 3537,
      "consent": 3538,
      "cious": 3539,
      "ounds": 3540,
      "oland": 3541,
      "réponse": 3542,
      "steps": 3543,
      "dir": 3544,
      "aces": 3545,
      "wit": 3546,
      "çant": 3547,
      "uttered": 3548,
      "diam": 3549,
      "single": 3550,
      "running": 3551,
      "appearance": 3552,
      "French": 3553,
      "gla": 3554,
      "acqu": 3555,
      "lettres": 3556,
      "obscur": 3557,
      "néces": 3558,
      "colère": 3559,
      "questions": 3560,
      "quinze": 3561,
      "navire": 3562,
      "favor": 3563,
      "Ainsi": 3564,
      "wise": 3565,
      "ences": 3566,
      "iner": 3567,
      "triste": 3568,
      "hion": 3569,
      "saur": 3570,
      "voici": 3571,
      "oise": 3572,
      "années": 3573,
      "seven": 3574,
      "faith": 3575,
      "grew": 3576,
      "bank": 3577,
      "influ": 3578,
      ",−−": 3579,
      "Tou": 3580,
      "Where": 3581,
      "usk": 3582,
      "agon": 3583,
      "tier": 3584,
      "fré": 3585,
      "vic": 3586,
      "horses": 3587,
      "sûr": 3588,
      "free": 3589,
      "mant": 3590,
      "départ": 3591,
      "arrivé": 3592,
      "curios": 3593,
      "watch": 3594,
      "employ": 3595,
      "Gé": 3596,
      "hang": 3597,
      "nent": 3598,
      "despair": 3599,
      "volu": 3600,
      "vivement": 3601,
      "cros": 3602,
      "caract": 3603,
      "seems": 3604,
      "emple": 3605,
      "jeta": 3606,
      "suivant": 3607,
      "chacun": 3608,
      "Bar": 3609,
      "King": 3610,
      "élan": 3611,
      "desire": 3612,
      "coast": 3613,
      "résol": 3614,
      "cart": 3615,
      "pic": 3616,
      "voulut": 3617,
      "subject": 3618,
      "vast": 3619,
      "remp": 3620,
      "descri": 3621,
      "prudence": 3622,
      "Fri": 3623,
      "gust": 3624,
      "revenir": 3625,
      "dité": 3626,
      "midi": 3627,
      "imagination": 3628,
      "jardin": 3629,
      "vê": 3630,
      "diffé": 3631,
      "précipit": 3632,
      "character": 3633,
      "sez": 3634,
      "windows": 3635,
      "Aussi": 3636,
      "EN": 3637,
      "mè": 3638,
      "agree": 3639,
      "tired": 3640,
      "déon": 3641,
      "dément": 3642,
      "emport": 3643,
      "heads": 3644,
      "stret": 3645,
      "droite": 3646,
      "arrêta": 3647,
      "wonder": 3648,
      "escalier": 3649,
      "Ber": 3650,
      "dan": 3651,
      "gli": 3652,
      "scho": 3653,
      "éche": 3654,
      "lam": 3655,
      "signe": 3656,
      "viv": 3657,
      "portait": 3658,
      "clothe": 3659,
      "aches": 3660,
      "talking": 3661,
      "pâle": 3662,
      "oeil": 3663,
      "Tré": 3664,
      "cade": 3665,
      "ial": 3666,
      "mass": 3667,
      "reuse": 3668,
      "mention": 3669,
      "robe": 3670,
      "myst": 3671,
      "malheur": 3672,
      "traver": 3673,
      "honour": 3674,
      "Gédéon": 3675,
      "Every": 3676,
      "Roland": 3677,
      "ging": 3678,
      "utile": 3679,
      "cot": 3680,
      "ouvrit": 3681,
      "letters": 3682,
      "mettait": 3683,
      "phil": 3684,
      "nearly": 3685,
      "garden": 3686,
      "beginning": 3687,
      "gout": 3688,
      "hâ": 3689,
      "beaux": 3690,
      "acre": 3691,
      "frapp": 3692,
      "lers": 3693,
      "street": 3694,
      "depth": 3695,
      "olo": 3696,
      "uring": 3697,
      "rois": 3698,
      "rend": 3699,
      "pock": 3700,
      "ishment": 3701,
      "istance": 3702,
      "Ses": 3703,
      "cler": 3704,
      "brû": 3705,
      "inté": 3706,
      "regards": 3707,
      "murm": 3708,
      "dout": 3709,
      "devoir": 3710,
      "amment": 3711,
      "cheveux": 3712,
      "monter": 3713,
      "sentiments": 3714,
      "ève": 3715,
      "ities": 3716,
      "advant": 3717,
      "apres": 3718,
      "devil": 3719,
      "onté": 3720,
      "issement": 3721,
      "pil": 3722,
      "âche": 3723,
      "riche": 3724,
      "agé": 3725,
      "cident": 3726,
      "regardant": 3727,
      "speci": 3728,
      "particuli": 3729,
      "vraiment": 3730,
      "slowly": 3731,
      "impression": 3732,
      "spl": 3733,
      "separ": 3734,
      "sibil": 3735,
      "start": 3736,
      "rencontr": 3737,
      "réflé": 3738,
      "vig": 3739,
      "champ": 3740,
      "ouvez": 3741,
      "arrivée": 3742,
      "Maheude": 3743,
      "hôtel": 3744,
      "neuf": 3745,
      "quette": 3746,
      "tened": 3747,
      "post": 3748,
      "entement": 3749,
      "Besides": 3750,
      "beyond": 3751,
      "XI": 3752,
      "sout": 3753,
      "Coll": 3754,
      "Mes": 3755,
      "Ra": 3756,
      "venge": 3757,
      "future": 3758,
      "occur": 3759,
      "aperçut": 3760,
      "Henry": 3761,
      "absence": 3762,
      "ié": 3763,
      "lon": 3764,
      "shad": 3765,
      "repos": 3766,
      "move": 3767,
      "journey": 3768,
      "minence": 3769,
      "corner": 3770,
      "arrière": 3771,
      "show": 3772,
      "contraire": 3773,
      "sacri": 3774,
      "threw": 3775,
      "Tous": 3776,
      "evident": 3777,
      "mét": 3778,
      "nation": 3779,
      "page": 3780,
      "comfort": 3781,
      "gover": 3782,
      "comprendre": 3783,
      "passing": 3784,
      "interrup": 3785,
      "Eur": 3786,
      "Là": 3787,
      "morte": 3788,
      "savais": 3789,
      "inet": 3790,
      "deur": 3791,
      "--\"<": 3792,
      "amed": 3793,
      "understood": 3794,
      "diffici": 3795,
      "étrang": 3796,
      "kill": 3797,
      "debout": 3798,
      "allez": 3799,
      "étu": 3800,
      "attendait": 3801,
      "general": 3802,
      "Rou": 3803,
      "oeu": 3804,
      "rare": 3805,
      "ladies": 3806,
      "alité": 3807,
      "seconde": 3808,
      "blue": 3809,
      "davantage": 3810,
      "arre": 3811,
      "roy": 3812,
      "dog": 3813,
      "taille": 3814,
      "Made": 3815,
      "trade": 3816,
      "floor": 3817,
      "quarter": 3818,
      "Good": 3819,
      "Val": 3820,
      "mos": 3821,
      "dehors": 3822,
      "asser": 3823,
      "died": 3824,
      "flex": 3825,
      "hardly": 3826,
      "communic": 3827,
      "parfaitement": 3828,
      "influence": 3829,
      "Jus": 3830,
      "Who": 3831,
      "seized": 3832,
      "rice": 3833,
      "nel": 3834,
      "voyez": 3835,
      "tiers": 3836,
      "messieurs": 3837,
      "advance": 3838,
      "bare": 3839,
      "bell": 3840,
      "lean": 3841,
      "ister": 3842,
      "resu": 3843,
      "pers": 3844,
      "crus": 3845,
      "issaient": 3846,
      "showed": 3847,
      "broke": 3848,
      "orders": 3849,
      "satisfaction": 3850,
      "mountain": 3851,
      "school": 3852,
      "èvre": 3853,
      "éprouv": 3854,
      "relig": 3855,
      "dem": 3856,
      "demain": 3857,
      "pleine": 3858,
      "ordinary": 3859,
      "pronon": 3860,
      "tis": 3861,
      "ridi": 3862,
      "visite": 3863,
      "aura": 3864,
      "besides": 3865,
      "cinquante": 3866,
      "walls": 3867,
      "!»": 3868,
      "pend": 3869,
      "test": 3870,
      "etc": 3871,
      "avis": 3872,
      "lions": 3873,
      "pros": 3874,
      "constru": 3875,
      "jeu": 3876,
      "moindre": 3877,
      "cts": 3878,
      "intention": 3879,
      "Jehan": 3880,
      "froide": 3881,
      "easily": 3882,
      "sense": 3883,
      "scarcely": 3884,
      "Pas": 3885,
      "bate": 3886,
      "fant": 3887,
      "hés": 3888,
      "alth": 3889,
      "pointed": 3890,
      "mistress": 3891,
      "faisaient": 3892,
      "esseur": 3893,
      "rapport": 3894,
      "Tr": 3895,
      "tete": 3896,
      "amen": 3897,
      "combien": 3898,
      "diable": 3899,
      "expl": 3900,
      "mourir": 3901,
      "England": 3902,
      "bis": 3903,
      "abbé": 3904,
      "veut": 3905,
      "montr": 3906,
      "racon": 3907,
      "Angle": 3908,
      "Qui": 3909,
      "visible": 3910,
      "offer": 3911,
      "knows": 3912,
      "cuis": 3913,
      "prudent": 3914,
      "THE": 3915,
      "Angleterre": 3916,
      "osop": 3917,
      "jeun": 3918,
      "coin": 3919,
      "afterwards": 3920,
      "getting": 3921,
      "distur": 3922,
      "transport": 3923,
      "fashion": 3924,
      "Europe": 3925,
      "alais": 3926,
      "finit": 3927,
      "charming": 3928,
      "ption": 3929,
      "ctive": 3930,
      "shadow": 3931,
      "Cert": 3932,
      "cen": 3933,
      "dû": 3934,
      "apport": 3935,
      "ligence": 3936,
      "entendit": 3937,
      "III": 3938,
      "important": 3939,
      "destin": 3940,
      "decided": 3941,
      "especi": 3942,
      "Tréville": 3943,
      "loss": 3944,
      "paper": 3945,
      "accompl": 3946,
      "ieuse": 3947,
      "discus": 3948,
      "married": 3949,
      "violence": 3950,
      "Lydia": 3951,
      "spectacle": 3952,
      "Treville": 3953,
      "mér": 3954,
      "intro": 3955,
      "accompagn": 3956,
      "stairs": 3957,
      "objet": 3958,
      "draw": 3959,
      "philosop": 3960,
      "introdu": 3961,
      "Ger": 3962,
      "vet": 3963,
      "memor": 3964,
      "aight": 3965,
      "rocks": 3966,
      "proper": 3967,
      "pread": 3968,
      "souf": 3969,
      "portion": 3970,
      "affaires": 3971,
      "circonst": 3972,
      "darkness": 3973,
      "difficult": 3974,
      "plateau": 3975,
      "shoulders": 3976,
      "Collins": 3977,
      "Dame": 3978,
      "ement": 3979,
      "hall": 3980,
      "în": 3981,
      "reli": 3982,
      "ash": 3983,
      "découver": 3984,
      "puiss": 3985,
      "iques": 3986,
      "lette": 3987,
      "rapid": 3988,
      "domest": 3989,
      "ckingham": 3990,
      "Buckingham": 3991,
      "Raquin": 3992,
      "especially": 3993,
      "?'": 3994,
      "Bel": 3995,
      "Ou": 3996,
      "killed": 3997,
      "throw": 3998,
      "songe": 3999,
      "géné": 4000,
      "Homais": 4001,
      "Mor": 4002,
      "reconn": 4003,
      "revint": 4004,
      "coat": 4005,
      "déjeun": 4006,
      "key": 4007,
      "straight": 4008,
      "000": 4009,
      "Hans": 4010,
      "Winter": 4011,
      "ba": 4012,
      "bound": 4013,
      "ize": 4014,
      "erville": 4015,
      "vier": 4016,
      "pensa": 4017,
      "support": 4018,
      "fles": 4019,
      "lent": 4020,
      "pti": 4021,
      "rons": 4022,
      "save": 4023,
      "servi": 4024,
      "morce": 4025,
      "steam": 4026,
      "laude": 4027,
      "eusse": 4028,
      "liqua": 4029,
      ".,": 4030,
      "IS": 4031,
      "Mou": 4032,
      "OU": 4033,
      "era": 4034,
      "illait": 4035,
      "toward": 4036,
      "auprès": 4037,
      "soin": 4038,
      "tenu": 4039,
      "misér": 4040,
      "arrive": 4041,
      "pleasant": 4042,
      "fatig": 4043,
      "resumed": 4044,
      "Claude": 4045,
      "Nap": 4046,
      "none": 4047,
      "quence": 4048,
      "elve": 4049,
      "pouvaient": 4050,
      "affir": 4051,
      "nouvelles": 4052,
      "épaules": 4053,
      "perceived": 4054,
      "neighbour": 4055,
      "pav": 4056,
      "saient": 4057,
      "requi": 4058,
      "reine": 4059,
      "itr": 4060,
      "itions": 4061,
      "rested": 4062,
      "disappeared": 4063,
      "sépar": 4064,
      "interrom": 4065,
      "chamber": 4066,
      "suivi": 4067,
      "honor": 4068,
      "commença": 4069,
      "tomba": 4070,
      "write": 4071,
      "certainement": 4072,
      "Hé": 4073,
      "tar": 4074,
      "deme": 4075,
      "tris": 4076,
      "moitié": 4077,
      "hood": 4078,
      "myster": 4079,
      "nier": 4080,
      "interest": 4081,
      "perfectly": 4082,
      "bons": 4083,
      "glad": 4084,
      "chang": 4085,
      "délic": 4086,
      "ending": 4087,
      "compli": 4088,
      "ferme": 4089,
      "speed": 4090,
      "bourge": 4091,
      "clothes": 4092,
      "ative": 4093,
      "neck": 4094,
      "adventure": 4095,
      "suit": 4096,
      "angle": 4097,
      "Marche": 4098,
      "genoux": 4099,
      "idées": 4100,
      "ficient": 4101,
      "third": 4102,
      "tte": 4103,
      "épo": 4104,
      "espoir": 4105,
      "aspect": 4106,
      "cule": 4107,
      "professeur": 4108,
      "signal": 4109,
      "entendait": 4110,
      "listened": 4111,
      "allowed": 4112,
      "érieure": 4113,
      "quickly": 4114,
      "nest": 4115,
      "nord": 4116,
      "org": 4117,
      "chi": 4118,
      "nements": 4119,
      "déclar": 4120,
      "serais": 4121,
      "vidence": 4122,
      "below": 4123,
      "volcan": 4124,
      "commençait": 4125,
      "Cle": 4126,
      "spread": 4127,
      "irrit": 4128,
      "pere": 4129,
      "weak": 4130,
      "quelles": 4131,
      "mitted": 4132,
      "ader": 4133,
      "âtre": 4134,
      "eter": 4135,
      "chaise": 4136,
      "allons": 4137,
      "expri": 4138,
      "green": 4139,
      "spent": 4140,
      "further": 4141,
      "quently": 4142,
      "CHAPIT": 4143,
      "CHAPITRE": 4144,
      "hill": 4145,
      "chen": 4146,
      "itement": 4147,
      "tsou": 4148,
      "Montsou": 4149,
      "fallen": 4150,
      "véritable": 4151,
      "resolved": 4152,
      "Musk": 4153,
      "grie": 4154,
      "pouvez": 4155,
      "écou": 4156,
      "height": 4157,
      "changed": 4158,
      "rentr": 4159,
      "prote": 4160,
      "assass": 4161,
      "anxious": 4162,
      "intelligence": 4163,
      "Muskete": 4164,
      "éte": 4165,
      "isted": 4166,
      "exe": 4167,
      "expected": 4168,
      "llement": 4169,
      "mêmes": 4170,
      "handsome": 4171,
      "quoique": 4172,
      "explic": 4173,
      "prenait": 4174,
      "blanche": 4175,
      "importance": 4176,
      "twelve": 4177,
      "château": 4178,
      "fun": 4179,
      "gment": 4180,
      "noy": 4181,
      "terror": 4182,
      "dessous": 4183,
      "hop": 4184,
      "plat": 4185,
      "illé": 4186,
      "marriage": 4187,
      "importe": 4188,
      "New": 4189,
      "instants": 4190,
      "waters": 4191,
      "portrait": 4192,
      "écrit": 4193,
      "paraître": 4194,
      "narrow": 4195,
      "!'<": 4196,
      "pure": 4197,
      "incess": 4198,
      "hier": 4199,
      "laissa": 4200,
      "quarante": 4201,
      "laissé": 4202,
      "Rob": 4203,
      "aled": 4204,
      "enor": 4205,
      "enfer": 4206,
      "elled": 4207,
      "excit": 4208,
      "pointe": 4209,
      "servir": 4210,
      "affect": 4211,
      "didn": 4212,
      "autrefois": 4213,
      "premiers": 4214,
      "demandai": 4215,
      "Deux": 4216,
      "spot": 4217,
      "pieces": 4218,
      "Main": 4219,
      "lun": 4220,
      "path": 4221,
      "éco": 4222,
      "liv": 4223,
      "vert": 4224,
      "poitr": 4225,
      "profon": 4226,
      "succes": 4227,
      "waves": 4228,
      "épouv": 4229,
      "ilt": 4230,
      "peau": 4231,
      "dois": 4232,
      "tenance": 4233,
      "facile": 4234,
      "rapidement": 4235,
      "nul": 4236,
      "ceed": 4237,
      "amus": 4238,
      "grap": 4239,
      "répondis": 4240,
      "gentil": 4241,
      "habitude": 4242,
      "please": 4243,
      "étro": 4244,
      "blanc": 4245,
      "reçu": 4246,
      "circumstances": 4247,
      "équi": 4248,
      "vere": 4249,
      "Quoi": 4250,
      "Comp": 4251,
      "entirely": 4252,
      "apart": 4253,
      "éta": 4254,
      "exer": 4255,
      "watched": 4256,
      "cution": 4257,
      "believed": 4258,
      "plaisant": 4259,
      "Maintenant": 4260,
      "inten": 4261,
      "lire": 4262,
      "sons": 4263,
      "illard": 4264,
      "marry": 4265,
      "centre": 4266,
      "fati": 4267,
      "sky": 4268,
      "hauteur": 4269,
      "fifty": 4270,
      "seated": 4271,
      "memb": 4272,
      "libre": 4273,
      "baron": 4274,
      "pleased": 4275,
      "sufficient": 4276,
      "sharp": 4277,
      "font": 4278,
      "oth": 4279,
      "hesit": 4280,
      "consé": 4281,
      "compris": 4282,
      "goût": 4283,
      "quelquefois": 4284,
      "drawn": 4285,
      "Very": 4286,
      "reconnaître": 4287,
      "inno": 4288,
      "inti": 4289,
      "noti": 4290,
      "pray": 4291,
      "calcul": 4292,
      "prépar": 4293,
      "Chaval": 4294,
      "shot": 4295,
      "difficulty": 4296,
      "efforts": 4297,
      "Jac": 4298,
      "beat": 4299,
      "cross": 4300,
      "longues": 4301,
      "suppos": 4302,
      "petites": 4303,
      "rising": 4304,
      "grosse": 4305,
      "cruel": 4306,
      "appuy": 4307,
      "Clé": 4308,
      "Just": 4309,
      "ket": 4310,
      "pê": 4311,
      "ém": 4312,
      "leag": 4313,
      "iling": 4314,
      "sig": 4315,
      "courir": 4316,
      "dread": 4317,
      "ids": 4318,
      "profond": 4319,
      "probable": 4320,
      "malade": 4321,
      "advantage": 4322,
      "âge": 4323,
      "inform": 4324,
      "arti": 4325,
      "atmos": 4326,
      "cean": 4327,
      "noire": 4328,
      "lock": 4329,
      "expé": 4330,
      "pot": 4331,
      "suivit": 4332,
      "honest": 4333,
      "effray": 4334,
      "Depuis": 4335,
      "Pru": 4336,
      "ails": 4337,
      "nine": 4338,
      "pût": 4339,
      "saut": 4340,
      "ud": 4341,
      "repris": 4342,
      "erait": 4343,
      "loge": 4344,
      "peup": 4345,
      "discovered": 4346,
      "ounced": 4347,
      "intér": 4348,
      "finished": 4349,
      "obtain": 4350,
      "engage": 4351,
      "époque": 4352,
      "bs": 4353,
      "entrée": 4354,
      "arrange": 4355,
      "Fair": 4356,
      "cue": 4357,
      "faim": 4358,
      "ouff": 4359,
      "oureux": 4360,
      "ury": 4361,
      "faits": 4362,
      "sortit": 4363,
      "descendre": 4364,
      "Prof": 4365,
      "presented": 4366,
      "Toute": 4367,
      "difficile": 4368,
      "lines": 4369,
      "although": 4370,
      "étude": 4371,
      "pressed": 4372,
      "tellement": 4373,
      "learned": 4374,
      "poitrine": 4375,
      "Prudence": 4376,
      "Long": 4377,
      "cord": 4378,
      "évé": 4379,
      "amb": 4380,
      "accident": 4381,
      "serve": 4382,
      "Leva": 4383,
      "riez": 4384,
      "malheureux": 4385,
      "flam": 4386,
      "campagne": 4387,
      "agréable": 4388,
      "enormous": 4389,
      "haus": 4390,
      "œil": 4391,
      "entour": 4392,
      "allée": 4393,
      "foi": 4394,
      "ult": 4395,
      "opport": 4396,
      "intérieur": 4397,
      "bleu": 4398,
      "canot": 4399,
      "eussent": 4400,
      "bourgeois": 4401,
      "aimer": 4402,
      "outside": 4403,
      "treat": 4404,
      "sud": 4405,
      "approach": 4406,
      "........": 4407,
      "favour": 4408,
      "papier": 4409,
      "bile": 4410,
      "gain": 4411,
      "tur": 4412,
      "deta": 4413,
      "delight": 4414,
      "rid": 4415,
      "acy": 4416,
      "worthy": 4417,
      "Rien": 4418,
      "lentement": 4419,
      "assure": 4420,
      "chest": 4421,
      "news": 4422,
      "ligne": 4423,
      "duty": 4424,
      "caractère": 4425,
      "dement": 4426,
      "orig": 4427,
      "dure": 4428,
      "achar": 4429,
      "échapp": 4430,
      "noticed": 4431,
      "Of": 4432,
      "pont": 4433,
      "dea": 4434,
      "armed": 4435,
      "seau": 4436,
      "secou": 4437,
      "tead": 4438,
      "prin": 4439,
      "histor": 4440,
      "ledge": 4441,
      "arrivait": 4442,
      "trouvai": 4443,
      "promise": 4444,
      "murmura": 4445,
      "pocket": 4446,
      "Gide": 4447,
      "San": 4448,
      "sable": 4449,
      "rejo": 4450,
      "envelop": 4451,
      "offered": 4452,
      "unique": 4453,
      "deser": 4454,
      "civil": 4455,
      "tender": 4456,
      "déjeuner": 4457,
      "Gideon": 4458,
      "Mart": 4459,
      "Où": 4460,
      "nés": 4461,
      "dirent": 4462,
      "mons": 4463,
      "appel": 4464,
      "attack": 4465,
      "Some": 4466,
      "incident": 4467,
      "recogni": 4468,
      "Clélia": 4469,
      "pér": 4470,
      "aud": 4471,
      "forte": 4472,
      "peace": 4473,
      "déser": 4474,
      "pièce": 4475,
      "Quelle": 4476,
      "suiv": 4477,
      "north": 4478,
      "success": 4479,
      "companion": 4480,
      "chaud": 4481,
      "anxi": 4482,
      "physi": 4483,
      "Mademoiselle": 4484,
      "Professor": 4485,
      "Martin": 4486,
      "len": 4487,
      "inhabit": 4488,
      "ride": 4489,
      "abil": 4490,
      "rég": 4491,
      "exé": 4492,
      "instead": 4493,
      "doux": 4494,
      "corde": 4495,
      "talked": 4496,
      "oreille": 4497,
      "dames": 4498,
      "bâti": 4499,
      "Clelia": 4500,
      "Levaque": 4501,
      "bb": 4502,
      "gai": 4503,
      "nie": 4504,
      "ening": 4505,
      "station": 4506,
      "grace": 4507,
      "Nothing": 4508,
      "promis": 4509,
      "faces": 4510,
      "waited": 4511,
      "sweet": 4512,
      "croyait": 4513,
      "shoulder": 4514,
      "impatience": 4515,
      "fet": 4516,
      "zen": 4517,
      "chat": 4518,
      "aught": 4519,
      "consci": 4520,
      "comb": 4521,
      "lled": 4522,
      "pensait": 4523,
      "jolie": 4524,
      "Marquis": 4525,
      "wrong": 4526,
      "bateau": 4527,
      "beast": 4528,
      "ouvrir": 4529,
      "party": 4530,
      "pensées": 4531,
      "horn": 4532,
      "profound": 4533,
      "drag": 4534,
      "hypo": 4535,
      "scene": 4536,
      "aimait": 4537,
      "branches": 4538,
      "knees": 4539,
      ".\"": 4540,
      "Moi": 4541,
      "gale": 4542,
      "ker": 4543,
      "paid": 4544,
      "ense": 4545,
      "offr": 4546,
      "consul": 4547,
      "roof": 4548,
      "prov": 4549,
      "crut": 4550,
      "places": 4551,
      "corn": 4552,
      "lande": 4553,
      "jeter": 4554,
      "parents": 4555,
      "imagine": 4556,
      "nécessaire": 4557,
      "opportun": 4558,
      "sand": 4559,
      "reck": 4560,
      "envie": 4561,
      "depart": 4562,
      "laissait": 4563,
      "queen": 4564,
      "prêtre": 4565,
      "conscience": 4566,
      "forth": 4567,
      "comman": 4568,
      "commis": 4569,
      "coucher": 4570,
      "gnes": 4571,
      "lower": 4572,
      "rooms": 4573,
      "épous": 4574,
      "loud": 4575,
      "beauty": 4576,
      "Henne": 4577,
      "Rassi": 4578,
      "aly": 4579,
      "teeth": 4580,
      "omin": 4581,
      "douleur": 4582,
      "ferait": 4583,
      "firm": 4584,
      "jambes": 4585,
      "opening": 4586,
      "farther": 4587,
      "satisfied": 4588,
      "Jup": 4589,
      "Mo": 4590,
      "caus": 4591,
      "drais": 4592,
      "pom": 4593,
      "noon": 4594,
      "forced": 4595,
      "mode": 4596,
      "fraî": 4597,
      "mble": 4598,
      "guide": 4599,
      "ishing": 4600,
      "méde": 4601,
      "brig": 4602,
      "Are": 4603,
      "Bou": 4604,
      "Cet": 4605,
      "dying": 4606,
      "sword": 4607,
      "actu": 4608,
      "acifi": 4609,
      "loir": 4610,
      "poign": 4611,
      "dissi": 4612,
      "walking": 4613,
      "compagnie": 4614,
      "symp": 4615,
      "considér": 4616,
      "written": 4617,
      "15": 4618,
      "Peut": 4619,
      "cieux": 4620,
      "année": 4621,
      "erai": 4622,
      "ali": 4623,
      "admi": 4624,
      "parle": 4625,
      "gry": 4626,
      "greatly": 4627,
      "enfon": 4628,
      "Allons": 4629,
      "thrown": 4630,
      "désespoir": 4631,
      "fortunate": 4632,
      "fatigue": 4633,
      "Bien": 4634,
      "tue": 4635,
      "lest": 4636,
      "réflex": 4637,
      "seem": 4638,
      "fax": 4639,
      "regular": 4640,
      "forty": 4641,
      "précis": 4642,
      "cares": 4643,
      "occupied": 4644,
      "épaule": 4645,
      "crainte": 4646,
      "**": 4647,
      "Bour": 4648,
      "bright": 4649,
      "ere": 4650,
      "joi": 4651,
      "lose": 4652,
      "rappro": 4653,
      "ump": 4654,
      "aigu": 4655,
      "appris": 4656,
      "devaient": 4657,
      "stranger": 4658,
      "honn": 4659,
      "stream": 4660,
      "geste": 4661,
      "détails": 4662,
      "spirit": 4663,
      "parlé": 4664,
      "weather": 4665,
      "appelle": 4666,
      "knowing": 4667,
      "empty": 4668,
      "sitting": 4669,
      "déja": 4670,
      "archite": 4671,
      "brusquement": 4672,
      "Fairfax": 4673,
      "May": 4674,
      "ears": 4675,
      "wide": 4676,
      "çaient": 4677,
      "degré": 4678,
      "voie": 4679,
      "chee": 4680,
      "arrêt": 4681,
      "lphe": 4682,
      "vari": 4683,
      "Hennebeau": 4684,
      "oured": 4685,
      "theless": 4686,
      "veu": 4687,
      "allant": 4688,
      "dée": 4689,
      "gris": 4690,
      "prehen": 4691,
      "obé": 4692,
      "temper": 4693,
      "priv": 4694,
      "silen": 4695,
      "build": 4696,
      "early": 4697,
      "absolument": 4698,
      "started": 4699,
      "officer": 4700,
      "Gener": 4701,
      "flat": 4702,
      "rough": 4703,
      "soft": 4704,
      "vor": 4705,
      "indis": 4706,
      "alle": 4707,
      "absor": 4708,
      "confus": 4709,
      "ainte": 4710,
      "wear": 4711,
      "coal": 4712,
      "jusque": 4713,
      "settle": 4714,
      "souri": 4715,
      "Harrison": 4716,
      "chapeau": 4717,
      "Chapter": 4718,
      "Rue": 4719,
      "mbe": 4720,
      "viens": 4721,
      "ann": 4722,
      "abond": 4723,
      "dolphe": 4724,
      "distr": 4725,
      "craign": 4726,
      "sentence": 4727,
      "mépris": 4728,
      "langu": 4729,
      "climb": 4730,
      "énorme": 4731,
      "camarades": 4732,
      "Aou": 4733,
      "Mi": 4734,
      "XX": 4735,
      "wine": 4736,
      "yel": 4737,
      "rive": 4738,
      "pride": 4739,
      "écrire": 4740,
      "promised": 4741,
      "genre": 4742,
      "arrêter": 4743,
      "espèce": 4744,
      "conditions": 4745,
      "Mercy": 4746,
      "Aouda": 4747,
      "Master": 4748,
      "mn": 4749,
      "legs": 4750,
      "acte": 4751,
      "----": 4752,
      "poison": 4753,
      "bow": 4754,
      "sentit": 4755,
      "auraient": 4756,
      "drink": 4757,
      "vaste": 4758,
      "admiration": 4759,
      "cousin": 4760,
      "mbered": 4761,
      "Two": 4762,
      "athe": 4763,
      "dry": 4764,
      "devo": 4765,
      "search": 4766,
      "semaine": 4767,
      "celles": 4768,
      "ador": 4769,
      "prat": 4770,
      "resp": 4771,
      "hie": 4772,
      "compos": 4773,
      "lieues": 4774,
      "société": 4775,
      "settled": 4776,
      "lée": 4777,
      "pleur": 4778,
      "pity": 4779,
      "uil": 4780,
      "ûmes": 4781,
      "ession": 4782,
      "quart": 4783,
      "laire": 4784,
      "rique": 4785,
      "movement": 4786,
      "disant": 4787,
      "tuer": 4788,
      "rivage": 4789,
      "occurred": 4790,
      "?»<": 4791,
      "ES": 4792,
      "tante": 4793,
      "zy": 4794,
      "inconnu": 4795,
      "determin": 4796,
      "office": 4797,
      "notice": 4798,
      "stir": 4799,
      "endor": 4800,
      "récit": 4801,
      "wore": 4802,
      "devint": 4803,
      "trace": 4804,
      "videmment": 4805,
      "forgotten": 4806,
      "Did": 4807,
      "makes": 4808,
      "douze": 4809,
      "compagnon": 4810,
      "battre": 4811,
      "Cor": 4812,
      "Es": 4813,
      "sage": 4814,
      "ateur": 4815,
      "ceci": 4816,
      "note": 4817,
      "abbe": 4818,
      "south": 4819,
      "approached": 4820,
      "épée": 4821,
      "mauvaise": 4822,
      "Jamais": 4823,
      "ilement": 4824,
      "tin": 4825,
      "onze": 4826,
      "attr": 4827,
      "chois": 4828,
      "réun": 4829,
      "touch": 4830,
      "shook": 4831,
      "affair": 4832,
      "simply": 4833,
      "Perhaps": 4834,
      "domestique": 4835,
      "Wat": 4836,
      "ige": 4837,
      "éon": 4838,
      "prêt": 4839,
      "doors": 4840,
      "brill": 4841,
      "prenez": 4842,
      "fenêtres": 4843,
      "liberté": 4844,
      "Have": 4845,
      "avoi": 4846,
      "aide": 4847,
      "étendu": 4848,
      "conclu": 4849,
      "parts": 4850,
      "amid": 4851,
      "rentre": 4852,
      "vided": 4853,
      "beside": 4854,
      "simplement": 4855,
      "retourner": 4856,
      "absolute": 4857,
      "possession": 4858,
      "beauté": 4859,
      "extremely": 4860,
      "square": 4861,
      "souffr": 4862,
      "Plus": 4863,
      "bent": 4864,
      "atten": 4865,
      "auquel": 4866,
      "lif": 4867,
      "dul": 4868,
      "poche": 4869,
      "soupir": 4870,
      "reprendre": 4871,
      "lotte": 4872,
      "Quelques": 4873,
      "gloom": 4874,
      "Mos": 4875,
      "ec": 4876,
      "ières": 4877,
      "mers": 4878,
      "rate": 4879,
      "isit": 4880,
      "attempt": 4881,
      "paravant": 4882,
      "ames": 4883,
      "tree": 4884,
      "déf": 4885,
      "leton": 4886,
      "colonists": 4887,
      "paraît": 4888,
      "ben": 4889,
      "city": 4890,
      "gend": 4891,
      "rise": 4892,
      "wis": 4893,
      "invent": 4894,
      "levant": 4895,
      "allaient": 4896,
      "ama": 4897,
      "accent": 4898,
      "moving": 4899,
      "sugg": 4900,
      "fee": 4901,
      "serai": 4902,
      "clou": 4903,
      "Roche": 4904,
      "Rodolphe": 4905,
      "shouted": 4906,
      "globe": 4907,
      "Lorsque": 4908,
      "OR": 4909,
      "Was": 4910,
      "retrouver": 4911,
      "vision": 4912,
      "spee": 4913,
      "enez": 4914,
      "soirée": 4915,
      "suffis": 4916,
      "convicts": 4917,
      "completely": 4918,
      "empêcher": 4919,
      "General": 4920,
      "Our": 4921,
      "asses": 4922,
      "orgue": 4923,
      "melan": 4924,
      "tem": 4925,
      "chés": 4926,
      "auparavant": 4927,
      "fever": 4928,
      "disparu": 4929,
      "habits": 4930,
      "pluie": 4931,
      "rushed": 4932,
      "spring": 4933,
      "west": 4934,
      "liked": 4935,
      "guère": 4936,
      "repent": 4937,
      "stro": 4938,
      "points": 4939,
      "ideas": 4940,
      "passant": 4941,
      "Monseigneur": 4942,
      "Parma": 4943,
      "belles": 4944,
      "garder": 4945,
      "subst": 4946,
      "recevoir": 4947,
      "Stap": 4948,
      "ancien": 4949,
      "Dongo": 4950,
      "gagner": 4951,
      "Pacifi": 4952,
      "naient": 4953,
      "yiel": 4954,
      "aines": 4955,
      "venus": 4956,
      "mena": 4957,
      "semblaient": 4958,
      "jud": 4959,
      "strugg": 4960,
      "Bessie": 4961,
      "society": 4962,
      "inclin": 4963,
      "organ": 4964,
      "Kit": 4965,
      "bul": 4966,
      "caval": 4967,
      "inv": 4968,
      "ator": 4969,
      "meas": 4970,
      "cool": 4971,
      "tique": 4972,
      "prodi": 4973,
      "preser": 4974,
      "countenance": 4975,
      "wice": 4976,
      "Reed": 4977,
      "excuse": 4978,
      "aque": 4979,
      "heaven": 4980,
      "aust": 4981,
      "grad": 4982,
      "courut": 4983,
      "whatever": 4984,
      "interval": 4985,
      "falling": 4986,
      "Jeanlin": 4987,
      "impatient": 4988,
      "increased": 4989,
      "degrees": 4990,
      "opposite": 4991,
      "stretched": 4992,
      "melancho": 4993,
      "kil": 4994,
      "hiver": 4995,
      "redou": 4996,
      "reté": 4997,
      "tantôt": 4998,
      "Parme": 4999,
      "famous": 5000,
      "salu": 5001,
      "hung": 5002,
      "gaz": 5003,
      "citade": 5004,
      "breakfast": 5005,
      "intelli": 5006,
      "mètres": 5007,
      "yellow": 5008,
      "melancholy": 5009,
      "Gi": 5010,
      "fâ": 5011,
      "gis": 5012,
      "ocean": 5013,
      "çai": 5014,
      "lik": 5015,
      "prê": 5016,
      "rote": 5017,
      "rente": 5018,
      "déb": 5019,
      "fid": 5020,
      "wned": 5021,
      "psy": 5022,
      "honte": 5023,
      "sommeil": 5024,
      "aventure": 5025,
      "murmured": 5026,
      "Kitty": 5027,
      "Bask": 5028,
      "Lady": 5029,
      "wounded": 5030,
      "dece": 5031,
      "ourselves": 5032,
      "mesure": 5033,
      "vive": 5034,
      "shout": 5035,
      "humeur": 5036,
      "greatest": 5037,
      "conduite": 5038,
      "threat": 5039,
      "hait": 5040,
      "pant": 5041,
      "quais": 5042,
      "utation": 5043,
      "agr": 5044,
      "terday": 5045,
      "tire": 5046,
      "pourrais": 5047,
      "docteur": 5048,
      "dition": 5049,
      "angers": 5050,
      "worse": 5051,
      "traî": 5052,
      "indign": 5053,
      "succeeded": 5054,
      "magnificent": 5055,
      "houses": 5056,
      "demeure": 5057,
      "Mary": 5058,
      "wrote": 5059,
      "èces": 5060,
      "accro": 5061,
      "soix": 5062,
      "mante": 5063,
      "proch": 5064,
      "shap": 5065,
      "obli": 5066,
      "moire": 5067,
      "pace": 5068,
      "palais": 5069,
      "singular": 5070,
      "prenant": 5071,
      "escaped": 5072,
      "Amer": 5073,
      "cés": 5074,
      "lord": 5075,
      "tall": 5076,
      "ited": 5077,
      "rob": 5078,
      "pow": 5079,
      "vière": 5080,
      "touched": 5081,
      "répliqua": 5082,
      "prix": 5083,
      "jeté": 5084,
      "observer": 5085,
      "furious": 5086,
      "obscurité": 5087,
      "vengeance": 5088,
      "ax": 5089,
      "dare": 5090,
      "game": 5091,
      "desi": 5092,
      "riers": 5093,
      "adis": 5094,
      "stick": 5095,
      "firent": 5096,
      "illet": 5097,
      "mbre": 5098,
      "immédi": 5099,
      "attendant": 5100,
      "contrary": 5101,
      "connaissait": 5102,
      "girls": 5103,
      "montrer": 5104,
      "During": 5105,
      "cant": 5106,
      "proud": 5107,
      "verre": 5108,
      "moder": 5109,
      "lover": 5110,
      "allé": 5111,
      "horreur": 5112,
      "ivement": 5113,
      "avenir": 5114,
      "laughing": 5115,
      "memory": 5116,
      "flesh": 5117,
      "LA": 5118,
      "Mont": 5119,
      "gin": 5120,
      "reed": 5121,
      "revol": 5122,
      "leep": 5123,
      "sement": 5124,
      "unknown": 5125,
      "établ": 5126,
      "moon": 5127,
      "hot": 5128,
      "frisson": 5129,
      "bonnes": 5130,
      "claire": 5131,
      "fusil": 5132,
      "maud": 5133,
      "ministre": 5134,
      "intérêt": 5135,
      ",<": 5136,
      "Voi": 5137,
      "gant": 5138,
      "winter": 5139,
      "ordres": 5140,
      "voudrais": 5141,
      "instinct": 5142,
      "holding": 5143,
      "saved": 5144,
      "Canadian": 5145,
      "Grimaud": 5146,
      "hésit": 5147,
      "peuple": 5148,
      "Mosca": 5149,
      "tôt": 5150,
      "hide": 5151,
      "tive": 5152,
      "poisson": 5153,
      "sought": 5154,
      "chers": 5155,
      "huge": 5156,
      "troisième": 5157,
      "swear": 5158,
      "machine": 5159,
      "Watson": 5160,
      "ghed": 5161,
      "reve": 5162,
      "concl": 5163,
      "uneas": 5164,
      "domin": 5165,
      "embarras": 5166,
      "opportunity": 5167,
      "West": 5168,
      "oper": 5169,
      "argu": 5170,
      "unk": 5171,
      "choi": 5172,
      "hig": 5173,
      "outre": 5174,
      "appare": 5175,
      "valet": 5176,
      "chaleur": 5177,
      "pitié": 5178,
      "animaux": 5179,
      "bitter": 5180,
      "confess": 5181,
      "doucement": 5182,
      "wretched": 5183,
      "intim": 5184,
      "soixante": 5185,
      "Stre": 5186,
      "eager": 5187,
      "ives": 5188,
      "slo": 5189,
      "wel": 5190,
      "heat": 5191,
      "onna": 5192,
      "ends": 5193,
      "plained": 5194,
      "rues": 5195,
      "interro": 5196,
      "guerre": 5197,
      "caution": 5198,
      "likely": 5199,
      "cage": 5200,
      "mut": 5201,
      "pared": 5202,
      "ining": 5203,
      "lage": 5204,
      "alter": 5205,
      "chim": 5206,
      "condam": 5207,
      "acles": 5208,
      "compar": 5209,
      "moor": 5210,
      "voulais": 5211,
      "approcha": 5212,
      "traits": 5213,
      "immobile": 5214,
      "crossed": 5215,
      "Friday": 5216,
      "leagues": 5217,
      "Baskerville": 5218,
      "Voici": 5219,
      "blé": 5220,
      "flan": 5221,
      "lune": 5222,
      "mienne": 5223,
      "tab": 5224,
      "arme": 5225,
      "avance": 5226,
      "irard": 5227,
      "forces": 5228,
      "coach": 5229,
      "frag": 5230,
      "venant": 5231,
      "brou": 5232,
      "pire": 5233,
      "prepared": 5234,
      "rade": 5235,
      "greater": 5236,
      "animals": 5237,
      "purpose": 5238,
      "motionless": 5239,
      "burning": 5240,
      "rounded": 5241,
      "delic": 5242,
      "parla": 5243,
      "terres": 5244,
      "jealous": 5245,
      "veau": 5246,
      "digne": 5247,
      "reek": 5248,
      "ouverte": 5249,
      "religion": 5250,
      "iles": 5251,
      "tit": 5252,
      "asleep": 5253,
      "sides": 5254,
      "sty": 5255,
      "weight": 5256,
      "hol": 5257,
      "ties": 5258,
      "disposition": 5259,
      "propri": 5260,
      "maines": 5261,
      "souhait": 5262,
      "class": 5263,
      "riere": 5264,
      "feelings": 5265,
      "conduire": 5266,
      "officier": 5267,
      "fatigu": 5268,
      "Né": 5269,
      "ril": 5270,
      "toile": 5271,
      "stair": 5272,
      "lux": 5273,
      "révé": 5274,
      "doctor": 5275,
      "couleur": 5276,
      "portes": 5277,
      "conduct": 5278,
      "Canadien": 5279,
      "profondément": 5280,
      "origin": 5281,
      ".--": 5282,
      "jor": 5283,
      "tong": 5284,
      "inn": 5285,
      "rivière": 5286,
      "ford": 5287,
      "stat": 5288,
      "Their": 5289,
      "exemple": 5290,
      "ouvre": 5291,
      "apprendre": 5292,
      "Ang": 5293,
      "broad": 5294,
      "demandait": 5295,
      "Ave": 5296,
      "Pho": 5297,
      "tâ": 5298,
      "tendre": 5299,
      "unhappy": 5300,
      "chaient": 5301,
      "usage": 5302,
      "atement": 5303,
      "corri": 5304,
      "caused": 5305,
      "sauver": 5306,
      "Pirard": 5307,
      "While": 5308,
      "cence": 5309,
      "liqui": 5310,
      "convain": 5311,
      "stones": 5312,
      "expos": 5313,
      "venez": 5314,
      "ints": 5315,
      "marcher": 5316,
      "anyone": 5317,
      "horror": 5318,
      "quitté": 5319,
      "flots": 5320,
      "sensible": 5321,
      "smiled": 5322,
      "fifteen": 5323,
      "sacrifice": 5324,
      "Zachar": 5325,
      "bun": 5326,
      "hos": 5327,
      "pill": 5328,
      "ality": 5329,
      "sue": 5330,
      "served": 5331,
      "brut": 5332,
      "mélan": 5333,
      "soldats": 5334,
      "élev": 5335,
      "Valen": 5336,
      "Zacharie": 5337,
      "Far": 5338,
      "caf": 5339,
      "dus": 5340,
      "spar": 5341,
      "ug": 5342,
      "refer": 5343,
      "levé": 5344,
      "amie": 5345,
      "luck": 5346,
      "rendez": 5347,
      "Armand": 5348,
      "sentir": 5349,
      "mademoiselle": 5350,
      "embras": 5351,
      "suivait": 5352,
      "boutique": 5353,
      "finding": 5354,
      "confidence": 5355,
      "battle": 5356,
      "entraî": 5357,
      "assured": 5358,
      "Jacques": 5359,
      "Oli": 5360,
      "hou": 5361,
      "jure": 5362,
      "pai": 5363,
      "inutile": 5364,
      "erie": 5365,
      "resting": 5366,
      "cons": 5367,
      "révol": 5368,
      "exist": 5369,
      "proved": 5370,
      "angu": 5371,
      "crimin": 5372,
      "breast": 5373,
      "rank": 5374,
      "échapper": 5375,
      "pareille": 5376,
      "convince": 5377,
      "fancy": 5378,
      "doigts": 5379,
      "agreeable": 5380,
      "gentilhomme": 5381,
      "Will": 5382,
      "nais": 5383,
      "vac": 5384,
      "devenu": 5385,
      "lion": 5386,
      "fron": 5387,
      "rées": 5388,
      "malad": 5389,
      "thern": 5390,
      "partit": 5391,
      "couple": 5392,
      "prisoner": 5393,
      "explo": 5394,
      "yesterday": 5395,
      "exactly": 5396,
      "provisions": 5397,
      "advanced": 5398,
      "IV": 5399,
      "scre": 5400,
      "œu": 5401,
      "œbus": 5402,
      "reau": 5403,
      "remu": 5404,
      "représent": 5405,
      "seat": 5406,
      "nobody": 5407,
      "dég": 5408,
      "manque": 5409,
      "forest": 5410,
      "retir": 5411,
      "report": 5412,
      "peuvent": 5413,
      "streets": 5414,
      "vaisseau": 5415,
      "fallut": 5416,
      "gathe": 5417,
      "suffer": 5418,
      "langue": 5419,
      "servants": 5420,
      "astonished": 5421,
      "Phœbus": 5422,
      "storm": 5423,
      "aunt": 5424,
      "cave": 5425,
      "cated": 5426,
      "ebus": 5427,
      "eté": 5428,
      "meant": 5429,
      "diver": 5430,
      "shel": 5431,
      "puisse": 5432,
      "actions": 5433,
      "triom": 5434,
      "marquise": 5435,
      "quietly": 5436,
      "soupçon": 5437,
      "deacon": 5438,
      "Phoebus": 5439,
      "Beau": 5440,
      "Elles": 5441,
      "kis": 5442,
      "maid": 5443,
      "nau": 5444,
      "tly": 5445,
      "émotion": 5446,
      "advice": 5447,
      "nore": 5448,
      "monstr": 5449,
      "longs": 5450,
      "continue": 5451,
      "ladder": 5452,
      "trying": 5453,
      "oublier": 5454,
      "remark": 5455,
      "Mal": 5456,
      "Port": 5457,
      "eper": 5458,
      "sla": 5459,
      "twice": 5460,
      "vête": 5461,
      "ège": 5462,
      "revoir": 5463,
      "lime": 5464,
      "absur": 5465,
      "hoped": 5466,
      "tip": 5467,
      "possé": 5468,
      "repous": 5469,
      "pauvres": 5470,
      "fussent": 5471,
      "promenade": 5472,
      "entièrement": 5473,
      "interrupted": 5474,
      "Stapleton": 5475,
      "éner": 5476,
      "—<": 5477,
      "eness": 5478,
      "decla": 5479,
      "arde": 5480,
      "allais": 5481,
      "author": 5482,
      "trous": 5483,
      "manquer": 5484,
      "discover": 5485,
      "merveille": 5486,
      "guard": 5487,
      "humil": 5488,
      "gardes": 5489,
      "birds": 5490,
      "speech": 5491,
      "Valenod": 5492,
      "murs": 5493,
      "nai": 5494,
      "pounds": 5495,
      "évidemment": 5496,
      "levait": 5497,
      "qua": 5498,
      "ettes": 5499,
      "establ": 5500,
      "Only": 5501,
      "personnes": 5502,
      "boute": 5503,
      "oreilles": 5504,
      "remembered": 5505,
      "faible": 5506,
      "umph": 5507,
      "16": 5508,
      "Had": 5509,
      "taient": 5510,
      "épar": 5511,
      "remettre": 5512,
      "ande": 5513,
      "ordered": 5514,
      "etty": 5515,
      "tomed": 5516,
      "résolu": 5517,
      "ureur": 5518,
      "assen": 5519,
      "judge": 5520,
      "entendis": 5521,
      "ease": 5522,
      "powerful": 5523,
      "Look": 5524,
      "settlers": 5525,
      "evidently": 5526,
      "bête": 5527,
      "fy": 5528,
      "fabri": 5529,
      "recher": 5530,
      "relat": 5531,
      "devenait": 5532,
      "avi": 5533,
      "liquer": 5534,
      "appoint": 5535,
      "lod": 5536,
      "youth": 5537,
      "tifi": 5538,
      "intri": 5539,
      "arranged": 5540,
      "thank": 5541,
      "charbon": 5542,
      "curious": 5543,
      "fourn": 5544,
      "terreur": 5545,
      "spoken": 5546,
      "archidi": 5547,
      "skin": 5548,
      "misérable": 5549,
      "épouvant": 5550,
      "archidiacre": 5551,
      "Col": 5552,
      "Jack": 5553,
      "Rassen": 5554,
      "fave": 5555,
      "ip": 5556,
      "kit": 5557,
      "évit": 5558,
      "choir": 5559,
      "ault": 5560,
      "parlant": 5561,
      "tenaient": 5562,
      "played": 5563,
      "repren": 5564,
      "Milan": 5565,
      "laughed": 5566,
      "pulled": 5567,
      "frightful": 5568,
      "tranquillement": 5569,
      "échelle": 5570,
      "depths": 5571,
      "innocent": 5572,
      "determined": 5573,
      "Avec": 5574,
      "Rasseneur": 5575,
      "Ré": 5576,
      "més": 5577,
      "agreed": 5578,
      "conne": 5579,
      "roches": 5580,
      "geant": 5581,
      "maisons": 5582,
      "puisqu": 5583,
      "tué": 5584,
      "supper": 5585,
      "bourg": 5586,
      "berge": 5587,
      "relations": 5588,
      "colonel": 5589,
      "noirs": 5590,
      "Majesté": 5591,
      "phrase": 5592,
      "AT": 5593,
      "Min": 5594,
      "ffe": 5595,
      "lâ": 5596,
      "tam": 5597,
      "refu": 5598,
      "onne": 5599,
      "seas": 5600,
      "feared": 5601,
      "explain": 5602,
      "seraient": 5603,
      "soudain": 5604,
      "Indi": 5605,
      "jump": 5606,
      "distinct": 5607,
      "patience": 5608,
      "cheminée": 5609,
      "grief": 5610,
      "gon": 5611,
      "iment": 5612,
      "édi": 5613,
      "rev": 5614,
      "unable": 5615,
      "adresse": 5616,
      "contemp": 5617,
      "amant": 5618,
      "chef": 5619,
      "bra": 5620,
      "humi": 5621,
      "betray": 5622,
      "putting": 5623,
      "brow": 5624,
      "tombe": 5625,
      "smoke": 5626,
      "Signor": 5627,
      "gée": 5628,
      "rab": 5629,
      "ède": 5630,
      "ateurs": 5631,
      "asc": 5632,
      "alo": 5633,
      "tex": 5634,
      "avre": 5635,
      "adop": 5636,
      "étab": 5637,
      "destro": 5638,
      "soeur": 5639,
      "songer": 5640,
      "ctric": 5641,
      "goes": 5642,
      "racont": 5643,
      "useless": 5644,
      "dressing": 5645,
      "commencer": 5646,
      "archdeacon": 5647,
      "recogn": 5648,
      "trembling": 5649,
      "growing": 5650,
      "accepter": 5651,
      "solitude": 5652,
      "Thorn": 5653,
      "ctement": 5654,
      "host": 5655,
      "kiss": 5656,
      "ote": 5657,
      "yard": 5658,
      "zaine": 5659,
      "sif": 5660,
      "peri": 5661,
      "dering": 5662,
      "silver": 5663,
      "écriai": 5664,
      "Sorel": 5665,
      "allery": 5666,
      "lanter": 5667,
      "voisin": 5668,
      "reading": 5669,
      "produced": 5670,
      "illiam": 5671,
      "difference": 5672,
      "astonishment": 5673,
      "accustomed": 5674,
      "gallery": 5675,
      "isol": 5676,
      "edge": 5677,
      "conside": 5678,
      "illons": 5679,
      "manquait": 5680,
      "permission": 5681,
      "preuve": 5682,
      "souper": 5683,
      "répand": 5684,
      "mistaken": 5685,
      "mées": 5686,
      "meters": 5687,
      "suspen": 5688,
      "sinc": 5689,
      "galop": 5690,
      "parer": 5691,
      "soldiers": 5692,
      "écras": 5693,
      "oublié": 5694,
      "refused": 5695,
      "observation": 5696,
      "taste": 5697,
      "écile": 5698,
      "lampe": 5699,
      "bid": 5700,
      "fal": 5701,
      "nante": 5702,
      "yre": 5703,
      "évê": 5704,
      "laissant": 5705,
      "serez": 5706,
      "chagr": 5707,
      "audi": 5708,
      "rières": 5709,
      "abomin": 5710,
      "poste": 5711,
      "arrival": 5712,
      "humaine": 5713,
      "parties": 5714,
      "August": 5715,
      "Grand": 5716,
      "étonné": 5717,
      "étonnement": 5718,
      "cabinet": 5719,
      "Pierron": 5720,
      "books": 5721,
      "médecin": 5722,
      "17": 5723,
      "Pre": 5724,
      "Som": 5725,
      "vul": 5726,
      "rement": 5727,
      "ises": 5728,
      "ila": 5729,
      "nelle": 5730,
      "reser": 5731,
      "trust": 5732,
      "trot": 5733,
      "obtenir": 5734,
      "canal": 5735,
      "sentais": 5736,
      "arry": 5737,
      "occu": 5738,
      "heureusement": 5739,
      "presently": 5740,
      "gazed": 5741,
      "aimable": 5742,
      "carefully": 5743,
      "laughter": 5744,
      "according": 5745,
      "convul": 5746,
      "fingers": 5747,
      "Thornfield": 5748,
      "cô": 5749,
      "nose": 5750,
      "pse": 5751,
      "pén": 5752,
      "écar": 5753,
      "angry": 5754,
      "secours": 5755,
      "augment": 5756,
      "rions": 5757,
      "nephe": 5758,
      "rests": 5759,
      "grass": 5760,
      "folle": 5761,
      "distant": 5762,
      "crou": 5763,
      "lling": 5764,
      "vitesse": 5765,
      "promet": 5766,
      "muraille": 5767,
      "traite": 5768,
      "détour": 5769,
      "créature": 5770,
      "learn": 5771,
      "morceau": 5772,
      "rac": 5773,
      "ule": 5774,
      "health": 5775,
      "leg": 5776,
      "design": 5777,
      "iser": 5778,
      "oration": 5779,
      "chaus": 5780,
      "contem": 5781,
      "parfois": 5782,
      "formid": 5783,
      "ambo": 5784,
      "clean": 5785,
      "voyais": 5786,
      "famili": 5787,
      "péni": 5788,
      "receive": 5789,
      "Henri": 5790,
      "slip": 5791,
      "apercevoir": 5792,
      "architecture": 5793,
      "orgueil": 5794,
      "refuge": 5795,
      "Cont": 5796,
      "Pang": 5797,
      "cations": 5798,
      "caver": 5799,
      "lake": 5800,
      "lumin": 5801,
      "sake": 5802,
      "ext": 5803,
      "dity": 5804,
      "protest": 5805,
      "playing": 5806,
      "aft": 5807,
      "somewhat": 5808,
      "voile": 5809,
      "appelait": 5810,
      "supposed": 5811,
      "illaient": 5812,
      "jouer": 5813,
      "pareil": 5814,
      "strike": 5815,
      "conceal": 5816,
      "obstin": 5817,
      "cuisine": 5818,
      "kitchen": 5819,
      "mien": 5820,
      "devenir": 5821,
      "aimé": 5822,
      "plun": 5823,
      "upper": 5824,
      "marked": 5825,
      "compter": 5826,
      "ventre": 5827,
      "chargé": 5828,
      "causer": 5829,
      "malheureuse": 5830,
      "source": 5831,
      "épaisse": 5832,
      "aperçus": 5833,
      "Francis": 5834,
      "rempl": 5835,
      "traces": 5836,
      "oiseaux": 5837,
      "departure": 5838,
      ":--": 5839,
      "Yet": 5840,
      "cacher": 5841,
      "gorge": 5842,
      "deb": 5843,
      "sein": 5844,
      "hire": 5845,
      "hers": 5846,
      "peas": 5847,
      "sued": 5848,
      "tide": 5849,
      "provo": 5850,
      "anglais": 5851,
      "ustri": 5852,
      "cherchait": 5853,
      "fera": 5854,
      "appeler": 5855,
      "millions": 5856,
      "thrust": 5857,
      "suspic": 5858,
      "returning": 5859,
      "hearing": 5860,
      "veiller": 5861,
      "suffered": 5862,
      "souten": 5863,
      "anxiety": 5864,
      "Galais": 5865,
      "Océ": 5866,
      "bure": 5867,
      "equal": 5868,
      "haine": 5869,
      "ny": 5870,
      "élé": 5871,
      "ani": 5872,
      "espère": 5873,
      "becoming": 5874,
      "loy": 5875,
      "estim": 5876,
      "chement": 5877,
      "plans": 5878,
      "safe": 5879,
      "réellement": 5880,
      "illée": 5881,
      "shud": 5882,
      "journal": 5883,
      "attitude": 5884,
      "worn": 5885,
      "thanks": 5886,
      "charm": 5887,
      "rieres": 5888,
      "tournant": 5889,
      "fatal": 5890,
      "extraordinary": 5891,
      "phrases": 5892,
      "acquaint": 5893,
      "oeuvre": 5894,
      "respond": 5895,
      "VI": 5896,
      "dared": 5897,
      "wound": 5898,
      "leaves": 5899,
      "lai": 5900,
      "lable": 5901,
      "alive": 5902,
      "omie": 5903,
      "agissait": 5904,
      "eller": 5905,
      "montagn": 5906,
      "folie": 5907,
      "publi": 5908,
      "toutefois": 5909,
      "volonté": 5910,
      "Voreux": 5911,
      "occasions": 5912,
      "meeting": 5913,
      "désespé": 5914,
      "gesture": 5915,
      "extraordinaire": 5916,
      "degree": 5917,
      "honnête": 5918,
      "considered": 5919,
      "dant": 5920,
      "emotion": 5921,
      "sab": 5922,
      "tais": 5923,
      "quaient": 5924,
      "ands": 5925,
      "alt": 5926,
      "prouver": 5927,
      "amitié": 5928,
      "acted": 5929,
      "sot": 5930,
      "lueur": 5931,
      "dési": 5932,
      "majest": 5933,
      "curé": 5934,
      "resté": 5935,
      "tourna": 5936,
      "paquet": 5937,
      "retourna": 5938,
      "express": 5939,
      "sorry": 5940,
      "poussa": 5941,
      "probably": 5942,
      "dining": 5943,
      "mult": 5944,
      "pistoles": 5945,
      "finger": 5946,
      "Musketeers": 5947,
      "Océan": 5948,
      "hôte": 5949,
      "ivre": 5950,
      "snow": 5951,
      "tint": 5952,
      "ouest": 5953,
      "envers": 5954,
      "result": 5955,
      "congé": 5956,
      "rédu": 5957,
      "résult": 5958,
      "cession": 5959,
      "selon": 5960,
      "grey": 5961,
      "assemb": 5962,
      "trouvaient": 5963,
      "risk": 5964,
      "lutte": 5965,
      "gypsy": 5966,
      "décidé": 5967,
      "mousquetaires": 5968,
      "required": 5969,
      "assassin": 5970,
      "fos": 5971,
      "ners": 5972,
      "repas": 5973,
      "recommand": 5974,
      "anes": 5975,
      "insol": 5976,
      "arra": 5977,
      "amoureux": 5978,
      "features": 5979,
      "explained": 5980,
      "finally": 5981,
      "ols": 5982,
      "Ingram": 5983,
      "naturel": 5984,
      "scène": 5985,
      "rapi": 5986,
      "calling": 5987,
      "confiance": 5988,
      "Besan": 5989,
      "driven": 5990,
      "descendit": 5991,
      "considerable": 5992,
      "writing": 5993,
      "Majesty": 5994,
      "splen": 5995,
      "nephew": 5996,
      "14": 5997,
      "Sainte": 5998,
      "fleurs": 5999,
      "gas": 6000,
      "gres": 6001,
      "pages": 6002,
      "lesquels": 6003,
      "exces": 6004,
      "ifs": 6005,
      "continuait": 6006,
      "côtés": 6007,
      "blind": 6008,
      "tombait": 6009,
      "patron": 6010,
      "born": 6011,
      "montagne": 6012,
      "vinrent": 6013,
      "frightened": 6014,
      "équipage": 6015,
      "faveur": 6016,
      "montagnes": 6017,
      "masse": 6018,
      "nette": 6019,
      "infin": 6020,
      "inside": 6021,
      "semaines": 6022,
      "riches": 6023,
      "neau": 6024,
      "hip": 6025,
      "agger": 6026,
      "soyez": 6027,
      "hole": 6028,
      "docu": 6029,
      "poids": 6030,
      "permet": 6031,
      "ulf": 6032,
      "possi": 6033,
      "willing": 6034,
      "aurai": 6035,
      "stead": 6036,
      "payer": 6037,
      "enemy": 6038,
      "Charlotte": 6039,
      "seuls": 6040,
      "santé": 6041,
      "pushed": 6042,
      "liberty": 6043,
      "Aut": 6044,
      "Gardin": 6045,
      "cte": 6046,
      "dust": 6047,
      "east": 6048,
      "pack": 6049,
      "hel": 6050,
      "ana": 6051,
      "level": 6052,
      "este": 6053,
      "asking": 6054,
      "tré": 6055,
      "conque": 6056,
      "acious": 6057,
      "figu": 6058,
      "pol": 6059,
      "keen": 6060,
      "mies": 6061,
      "boire": 6062,
      "seek": 6063,
      "courait": 6064,
      "croyez": 6065,
      "léger": 6066,
      "rude": 6067,
      "brown": 6068,
      "indivi": 6069,
      "également": 6070,
      "sensation": 6071,
      "croyais": 6072,
      "candle": 6073,
      "circonstances": 6074,
      "history": 6075,
      "gare": 6076,
      "mâ": 6077,
      "ros": 6078,
      "évident": 6079,
      "élég": 6080,
      "invol": 6081,
      "atro": 6082,
      "labour": 6083,
      "agir": 6084,
      "accompan": 6085,
      "duke": 6086,
      "saill": 6087,
      "intes": 6088,
      "marchait": 6089,
      "répétait": 6090,
      "ruin": 6091,
      "creatures": 6092,
      "indiffé": 6093,
      "bridge": 6094,
      "fault": 6095,
      "weeks": 6096,
      "envoyer": 6097,
      "sérieux": 6098,
      "gratitude": 6099,
      "apartment": 6100,
      "pêche": 6101,
      "language": 6102,
      "immédiatement": 6103,
      "Ros": 6104,
      "fill": 6105,
      "fosse": 6106,
      "mam": 6107,
      "élè": 6108,
      "atre": 6109,
      "unless": 6110,
      "chère": 6111,
      "neveu": 6112,
      "lighted": 6113,
      "siff": 6114,
      "abor": 6115,
      "ouvriers": 6116,
      "ords": 6117,
      "mist": 6118,
      "glis": 6119,
      "rouges": 6120,
      "accue": 6121,
      "telling": 6122,
      "observe": 6123,
      "épais": 6124,
      "Thus": 6125,
      "empe": 6126,
      "bataille": 6127,
      "inquiétude": 6128,
      "rappelle": 6129,
      "concealed": 6130,
      "disturbed": 6131,
      "conscious": 6132,
      "corridor": 6133,
      "Pangloss": 6134,
      "Sire": 6135,
      "dance": 6136,
      "rad": 6137,
      "scul": 6138,
      "reconnaissance": 6139,
      "rival": 6140,
      "comprit": 6141,
      "passions": 6142,
      "stam": 6143,
      "dict": 6144,
      "frais": 6145,
      "obsc": 6146,
      "Ital": 6147,
      "précé": 6148,
      "spend": 6149,
      "Bonadventure": 6150,
      "hurried": 6151,
      "extrém": 6152,
      "fields": 6153,
      "ically": 6154,
      "events": 6155,
      "particularly": 6156,
      "étudi": 6157,
      "rapidly": 6158,
      "dreadful": 6159,
      "bâtiment": 6160,
      "period": 6161,
      "extrémité": 6162,
      "Eyre": 6163,
      "hit": 6164,
      "kni": 6165,
      "lante": 6166,
      "mette": 6167,
      "iture": 6168,
      "sick": 6169,
      "forêt": 6170,
      "mile": 6171,
      "shame": 6172,
      "niers": 6173,
      "asseoir": 6174,
      "rugg": 6175,
      "latitude": 6176,
      "parent": 6177,
      "sooner": 6178,
      "earnest": 6179,
      "derniers": 6180,
      "facilement": 6181,
      "appartement": 6182,
      "bottle": 6183,
      "Verrieres": 6184,
      "eleven": 6185,
      "admirable": 6186,
      "intéres": 6187,
      "Alle": 6188,
      "Since": 6189,
      "fame": 6190,
      "pte": 6191,
      "pée": 6192,
      "yons": 6193,
      "ango": 6194,
      "espé": 6195,
      "unfortunate": 6196,
      "chal": 6197,
      "respir": 6198,
      "montait": 6199,
      "poly": 6200,
      "manche": 6201,
      "food": 6202,
      "justement": 6203,
      "triumph": 6204,
      "bande": 6205,
      "keeping": 6206,
      "navig": 6207,
      "perdue": 6208,
      "rêve": 6209,
      "familiar": 6210,
      "Cour": 6211,
      "Gre": 6212,
      "cès": 6213,
      "fate": 6214,
      "iet": 6215,
      "rag": 6216,
      "smil": 6217,
      "ano": 6218,
      "delay": 6219,
      "arbre": 6220,
      "meu": 6221,
      "vey": 6222,
      "excur": 6223,
      "touts": 6224,
      "clef": 6225,
      "laisse": 6226,
      "profit": 6227,
      "demandé": 6228,
      "certains": 6229,
      "counter": 6230,
      "base": 6231,
      "gaze": 6232,
      "Verrières": 6233,
      "instrument": 6234,
      "craindre": 6235,
      "remarked": 6236,
      "faithful": 6237,
      "raconter": 6238,
      "intense": 6239,
      "recognized": 6240,
      "café": 6241,
      "convinced": 6242,
      "Gardiner": 6243,
      "cure": 6244,
      "prie": 6245,
      "yards": 6246,
      "….<": 6247,
      "ouche": 6248,
      "agent": 6249,
      "conser": 6250,
      "jection": 6251,
      "bold": 6252,
      "yours": 6253,
      "looks": 6254,
      "charmante": 6255,
      "Marie": 6256,
      "témoi": 6257,
      "premières": 6258,
      "soldier": 6259,
      "faibles": 6260,
      "miserable": 6261,
      "découvrir": 6262,
      "curiosity": 6263,
      "rentrer": 6264,
      "Dès": 6265,
      "Vir": 6266,
      "bale": 6267,
      "cil": 6268,
      "cof": 6269,
      "eh": 6270,
      "gés": 6271,
      "hast": 6272,
      "iving": 6273,
      "oh": 6274,
      "changer": 6275,
      "respon": 6276,
      "redout": 6277,
      "derriere": 6278,
      "fold": 6279,
      "partis": 6280,
      "engaged": 6281,
      "rows": 6282,
      "français": 6283,
      "imagined": 6284,
      "sorti": 6285,
      "slept": 6286,
      "pierres": 6287,
      "couvert": 6288,
      "Frank": 6289,
      "sprang": 6290,
      "carrying": 6291,
      "siècle": 6292,
      "communication": 6293,
      "reconnut": 6294,
      "signifi": 6295,
      "Street": 6296,
      "Gré": 6297,
      "Wil": 6298,
      "gam": 6299,
      "miere": 6300,
      "rôle": 6301,
      "ètement": 6302,
      "delà": 6303,
      "orous": 6304,
      "ently": 6305,
      "aviez": 6306,
      "aurez": 6307,
      "lives": 6308,
      "sigh": 6309,
      "tron": 6310,
      "terms": 6311,
      "pered": 6312,
      "rendu": 6313,
      "timer": 6314,
      "manif": 6315,
      "shell": 6316,
      "prefer": 6317,
      "inspir": 6318,
      "gnait": 6319,
      "issent": 6320,
      "handker": 6321,
      "nécess": 6322,
      "endredi": 6323,
      "chaî": 6324,
      "égy": 6325,
      "patient": 6326,
      "endeav": 6327,
      "cision": 6328,
      "listening": 6329,
      "écouter": 6330,
      "instruments": 6331,
      "depend": 6332,
      "atteindre": 6333,
      "Mortimer": 6334,
      "platform": 6335,
      "membres": 6336,
      "tongue": 6337,
      "Bis": 6338,
      "fly": 6339,
      "iled": 6340,
      "atter": 6341,
      "étouff": 6342,
      "consol": 6343,
      "dimin": 6344,
      "rolled": 6345,
      "timi": 6346,
      "montra": 6347,
      "régu": 6348,
      "ull": 6349,
      "ueux": 6350,
      "répéta": 6351,
      "penet": 6352,
      "tures": 6353,
      "metres": 6354,
      "knowledge": 6355,
      "tels": 6356,
      "expliquer": 6357,
      "recolle": 6358,
      "delighted": 6359,
      "physion": 6360,
      "meilleur": 6361,
      "rencontrer": 6362,
      "details": 6363,
      "intelligent": 6364,
      "style": 6365,
      "smiling": 6366,
      "Grégo": 6367,
      "Ax": 6368,
      "Avant": 6369,
      "Liz": 6370,
      "Would": 6371,
      "xed": 6372,
      "ism": 6373,
      "seize": 6374,
      "neaux": 6375,
      "conso": 6376,
      "parted": 6377,
      "réser": 6378,
      "geon": 6379,
      "correspond": 6380,
      "blessé": 6381,
      "built": 6382,
      "Toutes": 6383,
      "tranquill": 6384,
      "catch": 6385,
      "magnifique": 6386,
      "curiosité": 6387,
      "figures": 6388,
      "Axel": 6389,
      ")<": 6390,
      "Fort": 6391,
      "cers": 6392,
      "cise": 6393,
      "jadis": 6394,
      "oy": 6395,
      "pel": 6396,
      "sme": 6397,
      "tira": 6398,
      "ailed": 6399,
      "étiez": 6400,
      "hero": 6401,
      "dévou": 6402,
      "réve": 6403,
      "manteau": 6404,
      "guil": 6405,
      "ération": 6406,
      "autrement": 6407,
      "igne": 6408,
      "Indeed": 6409,
      "ainement": 6410,
      "stock": 6411,
      "personnage": 6412,
      "fumée": 6413,
      "drop": 6414,
      "péné": 6415,
      "ramen": 6416,
      "summer": 6417,
      "sibility": 6418,
      "généra": 6419,
      "absolutely": 6420,
      "vêtements": 6421,
      "Cel": 6422,
      "Cac": 6423,
      "Crois": 6424,
      "Vi": 6425,
      "bos": 6426,
      "nus": 6427,
      "pais": 6428,
      "neys": 6429,
      "lois": 6430,
      "distri": 6431,
      "prepar": 6432,
      "Aronna": 6433,
      "humble": 6434,
      "bourn": 6435,
      "rayon": 6436,
      "fastened": 6437,
      "dangerous": 6438,
      "quantité": 6439,
      "semblable": 6440,
      "fauteuil": 6441,
      "galerie": 6442,
      "desired": 6443,
      "Cacambo": 6444,
      "Aronnax": 6445,
      "Dé": 6446,
      "GE": 6447,
      "pup": 6448,
      "remit": 6449,
      "enjoy": 6450,
      "etes": 6451,
      "secr": 6452,
      "prétend": 6453,
      "dessin": 6454,
      "soil": 6455,
      "combat": 6456,
      "surrounded": 6457,
      "permit": 6458,
      "cting": 6459,
      "ctures": 6460,
      "share": 6461,
      "brilli": 6462,
      "cries": 6463,
      "couldn": 6464,
      "classe": 6465,
      "mémoire": 6466,
      "mud": 6467,
      "valu": 6468,
      "examined": 6469,
      "moyens": 6470,
      "grown": 6471,
      "Mean": 6472,
      "costume": 6473,
      "directly": 6474,
      "discussion": 6475,
      "Robin": 6476,
      "Longbourn": 6477,
      "avoid": 6478,
      "staircase": 6479,
      "Bé": 6480,
      "OF": 6481,
      "Vers": 6482,
      "ox": 6483,
      "pho": 6484,
      "rever": 6485,
      "resemb": 6486,
      "tow": 6487,
      "addressed": 6488,
      "aison": 6489,
      "plong": 6490,
      "réus": 6491,
      "exas": 6492,
      "brand": 6493,
      "pipe": 6494,
      "current": 6495,
      "curtain": 6496,
      "profession": 6497,
      "tourner": 6498,
      "Atlant": 6499,
      "Conti": 6500,
      "Bonne": 6501,
      "raisonn": 6502,
      "merely": 6503,
      "doigt": 6504,
      "Belcher": 6505,
      "execution": 6506,
      "hollow": 6507,
      "pénible": 6508,
      "Lizzy": 6509,
      "Sau": 6510,
      "bless": 6511,
      "dange": 6512,
      "pente": 6513,
      "vaut": 6514,
      "évan": 6515,
      "intended": 6516,
      "quée": 6517,
      "enthus": 6518,
      "laquais": 6519,
      "admit": 6520,
      "vering": 6521,
      "ainted": 6522,
      "vivant": 6523,
      "ffer": 6524,
      "breaking": 6525,
      "sommet": 6526,
      "curieux": 6527,
      "salut": 6528,
      "déter": 6529,
      "obligé": 6530,
      "ignorant": 6531,
      "frequently": 6532,
      "embarrass": 6533,
      "bbing": 6534,
      "mélanco": 6535,
      "formidable": 6536,
      "Meanwhile": 6537,
      "Amé": 6538,
      "Cres": 6539,
      "zo": 6540,
      "Éminence": 6541,
      "dete": 6542,
      "dign": 6543,
      "rot": 6544,
      "débar": 6545,
      "gras": 6546,
      "puits": 6547,
      "ventured": 6548,
      "continent": 6549,
      "signed": 6550,
      "count": 6551,
      "sublime": 6552,
      "fury": 6553,
      "gallo": 6554,
      "refuse": 6555,
      "profondeur": 6556,
      "avouer": 6557,
      "stupé": 6558,
      "diamond": 6559,
      "ridicule": 6560,
      "powder": 6561,
      "Ab": 6562,
      "Barry": 6563,
      "Edie": 6564,
      "Sou": 6565,
      "dil": 6566,
      "evil": 6567,
      "vine": 6568,
      "secre": 6569,
      "address": 6570,
      "irai": 6571,
      "peux": 6572,
      "tient": 6573,
      "prove": 6574,
      "mirent": 6575,
      "insen": 6576,
      "fail": 6577,
      "bonnet": 6578,
      "March": 6579,
      "succès": 6580,
      "étranger": 6581,
      "blus": 6582,
      "joues": 6583,
      "hurry": 6584,
      "superior": 6585,
      "possessed": 6586,
      "réfléch": 6587,
      "Marchesa": 6588,
      "document": 6589,
      "Esp": 6590,
      "SE": 6591,
      "aler": 6592,
      "cout": 6593,
      "entrance": 6594,
      "chai": 6595,
      "riant": 6596,
      "descent": 6597,
      "lots": 6598,
      "ardon": 6599,
      "dozen": 6600,
      "couru": 6601,
      "impert": 6602,
      "afternoon": 6603,
      "shoes": 6604,
      "gently": 6605,
      "domesti": 6606,
      "mounted": 6607,
      "stayed": 6608,
      "swif": 6609,
      "scrup": 6610,
      "experien": 6611,
      "école": 6612,
      "ambition": 6613,
      "précisément": 6614,
      "Bientôt": 6615,
      "bay": 6616,
      "bber": 6617,
      "saint": 6618,
      "reconnais": 6619,
      "isme": 6620,
      "arse": 6621,
      "entr": 6622,
      "aloud": 6623,
      "aul": 6624,
      "rendit": 6625,
      "bore": 6626,
      "appren": 6627,
      "press": 6628,
      "gious": 6629,
      "contri": 6630,
      "offre": 6631,
      "space": 6632,
      "ennemi": 6633,
      "juger": 6634,
      "liez": 6635,
      "await": 6636,
      "grosses": 6637,
      "drive": 6638,
      "écoutait": 6639,
      "Because": 6640,
      "seriously": 6641,
      "commencement": 6642,
      "kilom": 6643,
      "individu": 6644,
      "Br": 6645,
      "bonté": 6646,
      "glace": 6647,
      "remor": 6648,
      "enthous": 6649,
      "avert": 6650,
      "aider": 6651,
      "neige": 6652,
      "proceed": 6653,
      "fortnight": 6654,
      "appears": 6655,
      "eurent": 6656,
      "troupe": 6657,
      "joined": 6658,
      "fuite": 6659,
      "scand": 6660,
      "brick": 6661,
      "feuille": 6662,
      "principal": 6663,
      "souvenirs": 6664,
      "misery": 6665,
      "hanging": 6666,
      "separated": 6667,
      "Toutefois": 6668,
      "accompanied": 6669,
      "Wilson": 6670,
      "AS": 6671,
      "War": 6672,
      "mun": 6673,
      "sch": 6674,
      "vont": 6675,
      "anmoins": 6676,
      "informed": 6677,
      "severe": 6678,
      "ceased": 6679,
      "chas": 6680,
      "limb": 6681,
      "hidden": 6682,
      "moti": 6683,
      "serpent": 6684,
      "vif": 6685,
      "breathe": 6686,
      "issante": 6687,
      "sév": 6688,
      "portée": 6689,
      "matters": 6690,
      "creus": 6691,
      "milit": 6692,
      "égard": 6693,
      "poudre": 6694,
      "constantly": 6695,
      "moust": 6696,
      "abandonner": 6697,
      "soldat": 6698,
      "buried": 6699,
      "aperçu": 6700,
      "souffle": 6701,
      "electric": 6702,
      "cieuse": 6703,
      "belonged": 6704,
      "leaning": 6705,
      "paix": 6706,
      "évêque": 6707,
      "?»": 6708,
      "Fou": 6709,
      "maient": 6710,
      "names": 6711,
      "reader": 6712,
      "enois": 6713,
      "indé": 6714,
      "itution": 6715,
      "atin": 6716,
      "ashed": 6717,
      "sex": 6718,
      "tower": 6719,
      "thian": 6720,
      "sière": 6721,
      "appla": 6722,
      "sonne": 6723,
      "dévelop": 6724,
      "procur": 6725,
      "credit": 6726,
      "raisons": 6727,
      "travaille": 6728,
      "drap": 6729,
      "distin": 6730,
      "besogne": 6731,
      "linen": 6732,
      "supporter": 6733,
      "agitation": 6734,
      "rivet": 6735,
      "tapis": 6736,
      "Excell": 6737,
      "Hélas": 6738,
      "exécut": 6739,
      "Anglais": 6740,
      "bureau": 6741,
      "Croisenois": 6742,
      "10": 6743,
      "Place": 6744,
      "cèrent": 6745,
      "dwell": 6746,
      "emer": 6747,
      "ency": 6748,
      "istr": 6749,
      "mel": 6750,
      "abrup": 6751,
      "monseigneur": 6752,
      "victi": 6753,
      "bree": 6754,
      "fortunes": 6755,
      "moral": 6756,
      "capital": 6757,
      "aware": 6758,
      "faudrait": 6759,
      "deeply": 6760,
      "consequence": 6761,
      "flowers": 6762,
      "Providence": 6763,
      "mystérie": 6764,
      "Barrymore": 6765,
      "domestiques": 6766,
      "Aus": 6767,
      "Ju": 6768,
      "Louvre": 6769,
      "Seu": 6770,
      "Tour": 6771,
      "Yor": 6772,
      "faint": 6773,
      "fanci": 6774,
      "ome": 6775,
      "ored": 6776,
      "pave": 6777,
      "revenait": 6778,
      "enchant": 6779,
      "infini": 6780,
      "incapable": 6781,
      "add": 6782,
      "libr": 6783,
      "vertu": 6784,
      "weary": 6785,
      "rendait": 6786,
      "monta": 6787,
      "explan": 6788,
      "illant": 6789,
      "popul": 6790,
      "mange": 6791,
      "proof": 6792,
      "autor": 6793,
      "doulou": 6794,
      "working": 6795,
      "crew": 6796,
      "watching": 6797,
      "pharm": 6798,
      "cloak": 6799,
      "hunger": 6800,
      "naturelle": 6801,
      "suffering": 6802,
      "rayons": 6803,
      "complètement": 6804,
      "failed": 6805,
      "Lucas": 6806,
      "apparent": 6807,
      "obstacle": 6808,
      "projets": 6809,
      "hâte": 6810,
      "explos": 6811,
      "bishop": 6812,
      "lor": 6813,
      "çà": 6814,
      "êts": 6815,
      "îlot": 6816,
      "attemp": 6817,
      "chute": 6818,
      "modes": 6819,
      "logis": 6820,
      "tical": 6821,
      "shed": 6822,
      "propres": 6823,
      "proceeded": 6824,
      "imper": 6825,
      "hastened": 6826,
      "sisters": 6827,
      "flung": 6828,
      "iana": 6829,
      "repeat": 6830,
      "remords": 6831,
      "blows": 6832,
      "Guilla": 6833,
      "Such": 6834,
      "puissance": 6835,
      "enthusias": 6836,
      "30": 6837,
      "Sun": 6838,
      "Sher": 6839,
      "Span": 6840,
      "bât": 6841,
      "yant": 6842,
      "entert": 6843,
      "nearer": 6844,
      "limit": 6845,
      "lignes": 6846,
      "condem": 6847,
      "tible": 6848,
      "dévor": 6849,
      "exac": 6850,
      "prolong": 6851,
      "saires": 6852,
      "plaît": 6853,
      "marine": 6854,
      "maréch": 6855,
      "pensais": 6856,
      "haste": 6857,
      "répondait": 6858,
      "clever": 6859,
      "voices": 6860,
      "prétex": 6861,
      "charged": 6862,
      "claim": 6863,
      "joli": 6864,
      "mouchoir": 6865,
      "prisonnier": 6866,
      "occupé": 6867,
      "vérit": 6868,
      "ancient": 6869,
      "stern": 6870,
      "dormir": 6871,
      "tracted": 6872,
      "cadavre": 6873,
      "sibilité": 6874,
      "mysterious": 6875,
      "physionomie": 6876,
      "détermin": 6877,
      "Fin": 6878,
      "cache": 6879,
      "rat": 6880,
      "isé": 6881,
      "ading": 6882,
      "aming": 6883,
      "soins": 6884,
      "cook": 6885,
      "pool": 6886,
      "crat": 6887,
      "boys": 6888,
      "mener": 6889,
      "ménage": 6890,
      "ferai": 6891,
      "sortait": 6892,
      "quitt": 6893,
      "species": 6894,
      "relief": 6895,
      "confusion": 6896,
      "lifted": 6897,
      "enthousias": 6898,
      "Diana": 6899,
      "Fir": 6900,
      "gê": 6901,
      "guns": 6902,
      "mation": 6903,
      "reconnu": 6904,
      "inière": 6905,
      "insul": 6906,
      "dedans": 6907,
      "isn": 6908,
      "beheld": 6909,
      "aveu": 6910,
      "ayez": 6911,
      "rentra": 6912,
      "tenue": 6913,
      "pièces": 6914,
      "rail": 6915,
      "retent": 6916,
      "attached": 6917,
      "corre": 6918,
      "color": 6919,
      "colour": 6920,
      "travaux": 6921,
      "sinon": 6922,
      "bringing": 6923,
      "various": 6924,
      "embarcation": 6925,
      "résolution": 6926,
      "demie": 6927,
      "struggle": 6928,
      "plunged": 6929,
      "knife": 6930,
      "Temple": 6931,
      "biz": 6932,
      "billet": 6933,
      "ns": 6934,
      "ètre": 6935,
      "retired": 6936,
      "quen": 6937,
      "entier": 6938,
      "cel": 6939,
      "sier": 6940,
      "destru": 6941,
      "comprehen": 6942,
      "sale": 6943,
      "défaut": 6944,
      "exté": 6945,
      "major": 6946,
      "managed": 6947,
      "dish": 6948,
      "goat": 6949,
      "pick": 6950,
      "picture": 6951,
      "pression": 6952,
      "gives": 6953,
      "acknow": 6954,
      "eping": 6955,
      "century": 6956,
      "Chris": 6957,
      "vouloir": 6958,
      "phère": 6959,
      "clearly": 6960,
      "semblables": 6961,
      "héros": 6962,
      "singulier": 6963,
      "métier": 6964,
      "objets": 6965,
      "fidèle": 6966,
      "acquaintance": 6967,
      ">(": 6968,
      "Rom": 6969,
      "damp": 6970,
      "iv": 6971,
      "ius": 6972,
      "nobles": 6973,
      "agers": 6974,
      "treated": 6975,
      "tied": 6976,
      "letti": 6977,
      "assise": 6978,
      "supérieure": 6979,
      "accout": 6980,
      "champs": 6981,
      "tourment": 6982,
      "franch": 6983,
      "instantly": 6984,
      "arrêté": 6985,
      "occupation": 6986,
      "regarde": 6987,
      "generally": 6988,
      "supply": 6989,
      "jeunesse": 6990,
      "apparence": 6991,
      "group": 6992,
      "slightly": 6993,
      "vapeur": 6994,
      "mountains": 6995,
      "cheeks": 6996,
      "announced": 6997,
      "Giletti": 6998,
      "poissons": 6999,
      "Olivier": 7000,
      "Av": 7001,
      "Blan": 7002,
      "git": 7003,
      "gallant": 7004,
      "ode": 7005,
      "sevent": 7006,
      "duced": 7007,
      "cop": 7008,
      "poet": 7009,
      "iennent": 7010,
      "takes": 7011,
      "clas": 7012,
      "pension": 7013,
      "misfortune": 7014,
      "rum": 7015,
      "armée": 7016,
      "granite": 7017,
      "tours": 7018,
      "murder": 7019,
      "linge": 7020,
      "castle": 7021,
      "stupid": 7022,
      "Nevertheless": 7023,
      "pavé": 7024,
      "gradually": 7025,
      "gathered": 7026,
      "false": 7027,
      "contempl": 7028,
      "résultat": 7029,
      "!…<": 7030,
      "Di": 7031,
      "Tur": 7032,
      "UN": 7033,
      "ively": 7034,
      "reaux": 7035,
      "revenu": 7036,
      "onder": 7037,
      "arily": 7038,
      "season": 7039,
      "toir": 7040,
      "étaire": 7041,
      "jected": 7042,
      "cheer": 7043,
      "dép": 7044,
      "urel": 7045,
      "mark": 7046,
      "coron": 7047,
      "join": 7048,
      "ruisse": 7049,
      "dropped": 7050,
      "cutting": 7051,
      "sincere": 7052,
      "Alas": 7053,
      "pensez": 7054,
      "mentioned": 7055,
      "Marchese": 7056,
      "clouds": 7057,
      "substance": 7058,
      "chagrin": 7059,
      "Sherlock": 7060,
      "Dr": 7061,
      "Even": 7062,
      "Hel": 7063,
      "Hall": 7064,
      "Rod": 7065,
      "Tom": 7066,
      "îte": 7067,
      "reviend": 7068,
      "infer": 7069,
      "deaf": 7070,
      "toit": 7071,
      "chante": 7072,
      "beach": 7073,
      "accor": 7074,
      "dull": 7075,
      "rol": 7076,
      "hopes": 7077,
      "dépos": 7078,
      "male": 7079,
      "fièvre": 7080,
      "permis": 7081,
      "discours": 7082,
      "ounce": 7083,
      "hatred": 7084,
      "souliers": 7085,
      "otherwise": 7086,
      "devais": 7087,
      "deviner": 7088,
      "worked": 7089,
      "ships": 7090,
      "figur": 7091,
      "virtue": 7092,
      "torrent": 7093,
      "magistr": 7094,
      "voyageurs": 7095,
      "Geor": 7096,
      "qualité": 7097,
      "spirits": 7098,
      "avança": 7099,
      "envoyé": 7100,
      "private": 7101,
      "settlement": 7102,
      "More": 7103,
      "TE": 7104,
      "date": 7105,
      "fled": 7106,
      "lance": 7107,
      "nur": 7108,
      "retenir": 7109,
      "attered": 7110,
      "size": 7111,
      "fected": 7112,
      "vile": 7113,
      "inture": 7114,
      "apporter": 7115,
      "meral": 7116,
      "pensai": 7117,
      "portant": 7118,
      "mater": 7119,
      "mates": 7120,
      "affairs": 7121,
      "sortes": 7122,
      "granit": 7123,
      "happen": 7124,
      "drove": 7125,
      "voisine": 7126,
      "toilette": 7127,
      "légère": 7128,
      "cautions": 7129,
      "clerk": 7130,
      "barely": 7131,
      "disturb": 7132,
      "Company": 7133,
      "événement": 7134,
      "réflexions": 7135,
      "delicate": 7136,
      "declared": 7137,
      "pharmac": 7138,
      "Ni": 7139,
      "Pres": 7140,
      "Vendredi": 7141,
      "flight": 7142,
      "tables": 7143,
      "wais": 7144,
      "yait": 7145,
      "zi": 7146,
      "ûte": 7147,
      "enjo": 7148,
      "def": 7149,
      "agno": 7150,
      "conseil": 7151,
      "fruit": 7152,
      "ouvrait": 7153,
      "puissant": 7154,
      "bored": 7155,
      "finir": 7156,
      "comptait": 7157,
      "grel": 7158,
      "cloud": 7159,
      "licité": 7160,
      "connue": 7161,
      "Duke": 7162,
      "wallow": 7163,
      "Lothian": 7164,
      "entering": 7165,
      "foolish": 7166,
      "découverte": 7167,
      "mystery": 7168,
      "reckon": 7169,
      "degrés": 7170,
      "Celui": 7171,
      "20": 7172,
      "Tabor": 7173,
      "cun": 7174,
      "fie": 7175,
      "gâ": 7176,
      "jalous": 7177,
      "lés": 7178,
      "commission": 7179,
      "loi": 7180,
      "renon": 7181,
      "défen": 7182,
      "notes": 7183,
      "foyer": 7184,
      "distress": 7185,
      "marches": 7186,
      "image": 7187,
      "crier": 7188,
      "apped": 7189,
      "gui": 7190,
      "masses": 7191,
      "descended": 7192,
      "hearts": 7193,
      "constant": 7194,
      "conviction": 7195,
      "allai": 7196,
      "sérieusement": 7197,
      "invitation": 7198,
      "York": 7199,
      ",»": 7200,
      "Clo": 7201,
      "Eminence": 7202,
      "Pa": 7203,
      "mage": 7204,
      "paces": 7205,
      "sank": 7206,
      "recu": 7207,
      "request": 7208,
      "relie": 7209,
      "retraite": 7210,
      "lament": 7211,
      "thunder": 7212,
      "queue": 7213,
      "elder": 7214,
      "étage": 7215,
      "songeait": 7216,
      "plomb": 7217,
      "dévo": 7218,
      "montrait": 7219,
      "régi": 7220,
      "seront": 7221,
      "donnant": 7222,
      "ouvrage": 7223,
      "lettes": 7224,
      "agnie": 7225,
      "someone": 7226,
      "begun": 7227,
      "ignait": 7228,
      "succeed": 7229,
      "ouvert": 7230,
      "ported": 7231,
      "confused": 7232,
      "severina": 7233,
      "fréquent": 7234,
      "volume": 7235,
      "particulier": 7236,
      "Compagnie": 7237,
      "Sanseverina": 7238,
      "souriant": 7239,
      "débarr": 7240,
      "Négrel": 7241,
      "Gas": 7242,
      "Ice": 7243,
      "Ven": 7244,
      "hither": 7245,
      "rè": 7246,
      "èche": 7247,
      "ori": 7248,
      "etres": 7249,
      "chin": 7250,
      "abatt": 7251,
      "absent": 7252,
      "loint": 7253,
      "divers": 7254,
      "--\"": 7255,
      "détru": 7256,
      "frame": 7257,
      "couche": 7258,
      "séjour": 7259,
      "lessly": 7260,
      "everywhere": 7261,
      "interior": 7262,
      "value": 7263,
      "continuer": 7264,
      "ennemis": 7265,
      "telles": 7266,
      "famil": 7267,
      "acheter": 7268,
      "quitta": 7269,
      "painful": 7270,
      "study": 7271,
      "whist": 7272,
      "circonstance": 7273,
      "approaching": 7274,
      "deserted": 7275,
      "devoted": 7276,
      "hospit": 7277,
      "nécessité": 7278,
      "experienced": 7279,
      "Léon": 7280,
      "RO": 7281,
      "fleur": 7282,
      "fureur": 7283,
      "ôme": 7284,
      "oub": 7285,
      "enant": 7286,
      "encour": 7287,
      "istes": 7288,
      "sienne": 7289,
      "terrain": 7290,
      ">\"'": 7291,
      "stiff": 7292,
      "veuve": 7293,
      "coqu": 7294,
      "tiens": 7295,
      "saf": 7296,
      "frapper": 7297,
      "popu": 7298,
      "manage": 7299,
      "vious": 7300,
      "placer": 7301,
      "whence": 7302,
      "impu": 7303,
      "numer": 7304,
      "nuages": 7305,
      "regardai": 7306,
      "sorts": 7307,
      "judi": 7308,
      "feuilles": 7309,
      "Seine": 7310,
      "Français": 7311,
      "chande": 7312,
      "bearing": 7313,
      "Adèle": 7314,
      "experience": 7315,
      "Rouen": 7316,
      "fantas": 7317,
      "événements": 7318,
      "fetch": 7319,
      "gloomy": 7320,
      "exactement": 7321,
      "vation": 7322,
      "écu": 7323,
      "retirer": 7324,
      "ontiers": 7325,
      "laine": 7326,
      "ests": 7327,
      "vivait": 7328,
      "bowed": 7329,
      "mistake": 7330,
      "rers": 7331,
      "fuir": 7332,
      "céder": 7333,
      "expressed": 7334,
      "nouveaux": 7335,
      "apparais": 7336,
      "recovered": 7337,
      "abandoned": 7338,
      "rays": 7339,
      "savage": 7340,
      "probablement": 7341,
      "meaning": 7342,
      "uniform": 7343,
      "remarqua": 7344,
      "fortunately": 7345,
      "Esmeral": 7346,
      "maladie": 7347,
      "Sometimes": 7348,
      "handkerchief": 7349,
      ".»": 7350,
      "Take": 7351,
      "XV": 7352,
      "dangers": 7353,
      "pait": 7354,
      "têtes": 7355,
      "dele": 7356,
      "apon": 7357,
      "sures": 7358,
      "ference": 7359,
      "crack": 7360,
      "placé": 7361,
      "pressure": 7362,
      "guess": 7363,
      "crown": 7364,
      "euf": 7365,
      "affreux": 7366,
      "embr": 7367,
      "named": 7368,
      "détach": 7369,
      "quarters": 7370,
      "tranquil": 7371,
      "Seurel": 7372,
      "highly": 7373,
      "Quelque": 7374,
      "employed": 7375,
      "assumed": 7376,
      "marchand": 7377,
      "furnished": 7378,
      ",−−<": 7379,
      "différent": 7380,
      "excited": 7381,
      "expéri": 7382,
      "épouser": 7383,
      "sympat": 7384,
      "considérable": 7385,
      "conclusion": 7386,
      "Minister": 7387,
      "audience": 7388,
      "occuper": 7389,
      "Grégoire": 7390,
      "évanou": 7391,
      "pavement": 7392,
      "!…": 7393,
      "Lui": 7394,
      "Lys": 7395,
      "swallow": 7396,
      "ony": 7397,
      "aside": 7398,
      "enth": 7399,
      "tear": 7400,
      "acity": 7401,
      "composed": 7402,
      "--<": 7403,
      "tien": 7404,
      "plon": 7405,
      "désor": 7406,
      "récla": 7407,
      "grain": 7408,
      "grève": 7409,
      "criait": 7410,
      "elling": 7411,
      "emporter": 7412,
      "match": 7413,
      "jetant": 7414,
      "suspect": 7415,
      "berg": 7416,
      "related": 7417,
      "hautes": 7418,
      "ancienne": 7419,
      "cabare": 7420,
      "sûre": 7421,
      "chevê": 7422,
      "fraîche": 7423,
      "Esmeralda": 7424,
      "Father": 7425,
      "High": 7426,
      "QU": 7427,
      "Yon": 7428,
      "phere": 7429,
      "tons": 7430,
      "aries": 7431,
      "cepti": 7432,
      "exped": 7433,
      "fié": 7434,
      "fired": 7435,
      "serons": 7436,
      "proportion": 7437,
      "uez": 7438,
      "courte": 7439,
      "croix": 7440,
      "chambres": 7441,
      "enemies": 7442,
      "morts": 7443,
      "flew": 7444,
      "occupait": 7445,
      "daily": 7446,
      "présenter": 7447,
      "doubtless": 7448,
      "mouvements": 7449,
      "levée": 7450,
      "bibli": 7451,
      "officers": 7452,
      "antime": 7453,
      "sauvage": 7454,
      "governess": 7455,
      "Certain": 7456,
      "commander": 7457,
      "building": 7458,
      "Michaud": 7459,
      "Americ": 7460,
      "éviter": 7461,
      "Cun": 7462,
      "Fleur": 7463,
      "Latin": 7464,
      "ME": 7465,
      "imb": 7466,
      "éra": 7467,
      "removed": 7468,
      "meat": 7469,
      "tea": 7470,
      "chais": 7471,
      "auberge": 7472,
      "hotel": 7473,
      "tile": 7474,
      "déchir": 7475,
      "bohé": 7476,
      "Leon": 7477,
      "works": 7478,
      "passaient": 7479,
      "everyone": 7480,
      "jetait": 7481,
      "brock": 7482,
      "cloth": 7483,
      "illage": 7484,
      "connaissez": 7485,
      "banc": 7486,
      "remains": 7487,
      "tombé": 7488,
      "doesn": 7489,
      "commandant": 7490,
      "politique": 7491,
      "concerned": 7492,
      "azin": 7493,
      "camarade": 7494,
      "vêtu": 7495,
      "obtained": 7496,
      "établir": 7497,
      "témoign": 7498,
      "coffee": 7499,
      "reign": 7500,
      "recue": 7501,
      "enbrock": 7502,
      "astrop": 7503,
      "consis": 7504,
      "apprit": 7505,
      "renver": 7506,
      "keys": 7507,
      "sert": 7508,
      "shade": 7509,
      "hate": 7510,
      "bled": 7511,
      "plaine": 7512,
      "Arch": 7513,
      "valait": 7514,
      "everybody": 7515,
      "rane": 7516,
      "saisit": 7517,
      "awak": 7518,
      "tombée": 7519,
      "durant": 7520,
      "poussait": 7521,
      "solemn": 7522,
      "hurt": 7523,
      "catastrop": 7524,
      "plainly": 7525,
      "bird": 7526,
      "comprends": 7527,
      "assurance": 7528,
      "nourrit": 7529,
      "danse": 7530,
      "Everything": 7531,
      "prospect": 7532,
      "conséquent": 7533,
      "humili": 7534,
      "bouteille": 7535,
      "abominable": 7536,
      "rapidité": 7537,
      "Bonnemort": 7538,
      "waist": 7539,
      "Yonville": 7540,
      "Ac": 7541,
      "Dre": 7542,
      "Hu": 7543,
      "bone": 7544,
      "cend": 7545,
      "equ": 7546,
      "fête": 7547,
      "pite": 7548,
      "pping": 7549,
      "remis": 7550,
      "det": 7551,
      "devenue": 7552,
      "ilité": 7553,
      "sien": 7554,
      "resto": 7555,
      "track": 7556,
      "convent": 7557,
      "contempt": 7558,
      "parlez": 7559,
      "tering": 7560,
      "logne": 7561,
      "stif": 7562,
      "chemise": 7563,
      "disparut": 7564,
      "bye": 7565,
      "brain": 7566,
      "guar": 7567,
      "pensé": 7568,
      "strang": 7569,
      "assit": 7570,
      "directed": 7571,
      "metho": 7572,
      "store": 7573,
      "ics": 7574,
      "Comte": 7575,
      "drowned": 7576,
      "péri": 7577,
      "exceed": 7578,
      "quarrel": 7579,
      "proposed": 7580,
      "fellows": 7581,
      "longueur": 7582,
      "environs": 7583,
      "ING": 7584,
      "espérance": 7585,
      "Très": 7586,
      "cenzi": 7587,
      "gendarmes": 7588,
      "wishes": 7589,
      "inclination": 7590,
      "Franklin": 7591,
      "Crescenzi": 7592,
      "remorse": 7593,
      "Seulement": 7594,
      "Avez": 7595,
      "Bazin": 7596,
      "Ici": 7597,
      "Mad": 7598,
      "Spe": 7599,
      "daient": 7600,
      "harm": 7601,
      "sœur": 7602,
      "taire": 7603,
      "épuis": 7604,
      "err": 7605,
      "arose": 7606,
      "asing": 7607,
      "alarm": 7608,
      "siez": 7609,
      "parois": 7610,
      "unex": 7611,
      "rendered": 7612,
      "illir": 7613,
      "iteur": 7614,
      "pugn": 7615,
      "marché": 7616,
      "picked": 7617,
      "piano": 7618,
      "guet": 7619,
      "forehead": 7620,
      "Ceci": 7621,
      "setting": 7622,
      "pala": 7623,
      "sourd": 7624,
      "widow": 7625,
      "plume": 7626,
      "reflected": 7627,
      "uttering": 7628,
      "ennui": 7629,
      "découvert": 7630,
      "compliment": 7631,
      "princesse": 7632,
      "Pacific": 7633,
      "shape": 7634,
      "égyp": 7635,
      "Guillaume": 7636,
      "Cal": 7637,
      "Va": 7638,
      "William": 7639,
      "tles": 7640,
      "wil": 7641,
      "ested": 7642,
      "needed": 7643,
      "prét": 7644,
      "abat": 7645,
      "desper": 7646,
      "sachant": 7647,
      "déce": 7648,
      "pirer": 7649,
      "premiere": 7650,
      "woke": 7651,
      "contained": 7652,
      "begged": 7653,
      "fusse": 7654,
      "istan": 7655,
      "owed": 7656,
      "présente": 7657,
      "torn": 7658,
      "empl": 7659,
      "paysan": 7660,
      "Before": 7661,
      "throat": 7662,
      "rêver": 7663,
      "observations": 7664,
      "rempla": 7665,
      "réfléchir": 7666,
      "morceaux": 7667,
      "***": 7668,
      "brilliant": 7669,
      "Clopin": 7670,
      "Drebber": 7671,
      "égyptienne": 7672,
      "Peu": 7673,
      "hale": 7674,
      "nay": 7675,
      "inking": 7676,
      "chu": 7677,
      "usually": 7678,
      "ams": 7679,
      "pear": 7680,
      "ieusement": 7681,
      "shone": 7682,
      "whenever": 7683,
      "pressing": 7684,
      "assistance": 7685,
      "fermer": 7686,
      "préfé": 7687,
      "ports": 7688,
      "rub": 7689,
      "persons": 7690,
      "drunk": 7691,
      "naturellement": 7692,
      "produit": 7693,
      "wooden": 7694,
      "custom": 7695,
      "naturally": 7696,
      "douceur": 7697,
      "Poor": 7698,
      "Guards": 7699,
      "jaune": 7700,
      "Rich": 7701,
      "maigre": 7702,
      "thorough": 7703,
      "Lorsqu": 7704,
      "steamer": 7705,
      "tristesse": 7706,
      "successi": 7707,
      "information": 7708,
      "rejoindre": 7709,
      "joign": 7710,
      "spark": 7711,
      "kissed": 7712,
      "appointment": 7713,
      "prétexte": 7714,
      "First": 7715,
      "Bri": 7716,
      "cret": 7717,
      "gained": 7718,
      "los": 7719,
      "maire": 7720,
      "inqu": 7721,
      "inexplic": 7722,
      "lecture": 7723,
      "irt": 7724,
      "termes": 7725,
      "tière": 7726,
      "déliv": 7727,
      "monster": 7728,
      "pourra": 7729,
      "exhaus": 7730,
      "illés": 7731,
      "keeper": 7732,
      "servait": 7733,
      "disais": 7734,
      "sheet": 7735,
      "crit": 7736,
      "souci": 7737,
      "nervous": 7738,
      "worst": 7739,
      "lées": 7740,
      "showing": 7741,
      "sortie": 7742,
      "habitants": 7743,
      "prend": 7744,
      "harmon": 7745,
      "necessity": 7746,
      "faudra": 7747,
      "reçut": 7748,
      "prevented": 7749,
      "leading": 7750,
      "throwing": 7751,
      "déclara": 7752,
      "obscure": 7753,
      "Amérique": 7754,
      "destruction": 7755,
      "AL": 7756,
      "Adele": 7757,
      "Dom": 7758,
      "Emp": 7759,
      "lâche": 7760,
      "odeur": 7761,
      "encourage": 7762,
      "deck": 7763,
      "archevê": 7764,
      "asons": 7765,
      "chon": 7766,
      "edu": 7767,
      "usions": 7768,
      "lieut": 7769,
      "forcé": 7770,
      "tern": 7771,
      "commo": 7772,
      "allon": 7773,
      "therfield": 7774,
      "minded": 7775,
      "toucher": 7776,
      "canon": 7777,
      "sentis": 7778,
      "missed": 7779,
      "offen": 7780,
      "Entre": 7781,
      "Netherfield": 7782,
      "larges": 7783,
      "friendship": 7784,
      "seuil": 7785,
      "sourit": 7786,
      "amongst": 7787,
      "trembled": 7788,
      "cabin": 7789,
      "visiter": 7790,
      "music": 7791,
      "troubled": 7792,
      "frequent": 7793,
      "remarqué": 7794,
      "Without": 7795,
      "trompe": 7796,
      "mousquetaire": 7797,
      "James": 7798,
      "flamme": 7799,
      "commissaire": 7800,
      "attendu": 7801,
      "excursion": 7802,
      "limbs": 7803,
      ").<": 7804,
      "Hon": 7805,
      "Its": 7806,
      "gus": 7807,
      "nis": 7808,
      "obe": 7809,
      "task": 7810,
      "remerci": 7811,
      "enclos": 7812,
      "indul": 7813,
      "chèvre": 7814,
      "étince": 7815,
      "acqui": 7816,
      "peculi": 7817,
      "wealth": 7818,
      "voila": 7819,
      "désire": 7820,
      "seeking": 7821,
      "préf": 7822,
      "charmant": 7823,
      "noms": 7824,
      "volontiers": 7825,
      "dernières": 7826,
      "ddenly": 7827,
      "secure": 7828,
      "woods": 7829,
      "battait": 7830,
      "groupe": 7831,
      "Suddenly": 7832,
      "demeura": 7833,
      "persuad": 7834,
      "interrompit": 7835,
      "Bishop": 7836,
      "peculiar": 7837,
      "Treg": 7838,
      "ailles": 7839,
      "farm": 7840,
      "mate": 7841,
      "zing": 7842,
      "renew": 7843,
      "reasons": 7844,
      "enva": 7845,
      "ini": 7846,
      "itre": 7847,
      "quad": 7848,
      "illumin": 7849,
      "ressemb": 7850,
      "agu": 7851,
      "dessein": 7852,
      "lowered": 7853,
      "résis": 7854,
      "manners": 7855,
      "discut": 7856,
      "ueuse": 7857,
      "crying": 7858,
      "fined": 7859,
      "useful": 7860,
      "ellis": 7861,
      "regagn": 7862,
      "cuir": 7863,
      "athé": 7864,
      "Parce": 7865,
      "ignit": 7866,
      "saisir": 7867,
      "Roy": 7868,
      "expliqu": 7869,
      "attendais": 7870,
      "kindness": 7871,
      "Musketeer": 7872,
      "dragged": 7873,
      "victim": 7874,
      "jalousie": 7875,
      "Tregellis": 7876,
      ".)<": 7877,
      "IL": 7878,
      "cav": 7879,
      "ky": 7880,
      "wet": 7881,
      "ènes": 7882,
      "ossi": 7883,
      "recouv": 7884,
      "quences": 7885,
      "arine": 7886,
      "formes": 7887,
      "commer": 7888,
      "ardent": 7889,
      "extended": 7890,
      "viole": 7891,
      "brise": 7892,
      "blew": 7893,
      "couteau": 7894,
      "objection": 7895,
      "pendu": 7896,
      "porté": 7897,
      "valeur": 7898,
      "matel": 7899,
      "joye": 7900,
      "licit": 7901,
      "promener": 7902,
      "folk": 7903,
      "masters": 7904,
      "Voyons": 7905,
      "fleuve": 7906,
      "reasonable": 7907,
      "connaît": 7908,
      "Ludo": 7909,
      "violently": 7910,
      "veillé": 7911,
      "apercevait": 7912,
      "extrêmement": 7913,
      "convenable": 7914,
      "dirai": 7915,
      "réflexion": 7916,
      "Brock": 7917,
      "Cune": 7918,
      "Man": 7919,
      "Mason": 7920,
      "Tis": 7921,
      "cité": 7922,
      "fasse": 7923,
      "Ça": 7924,
      "laise": 7925,
      "forgive": 7926,
      "ieres": 7927,
      "manu": 7928,
      "procession": 7929,
      "preci": 7930,
      "crimes": 7931,
      "érature": 7932,
      "gig": 7933,
      "sémin": 7934,
      "tuous": 7935,
      "offrir": 7936,
      "coupable": 7937,
      "Chaque": 7938,
      "spéci": 7939,
      "trouvant": 7940,
      "faisais": 7941,
      "lands": 7942,
      "circle": 7943,
      "awk": 7944,
      "rascal": 7945,
      "apparut": 7946,
      "élect": 7947,
      "souffrir": 7948,
      "décider": 7949,
      "baiser": 7950,
      "knee": 7951,
      "gund": 7952,
      "douter": 7953,
      "ability": 7954,
      "gaieté": 7955,
      "citadelle": 7956,
      "Colon": 7957,
      "Virgin": 7958,
      "applau": 7959,
      "Cunég": 7960,
      "Cunegund": 7961,
      "13": 7962,
      "25": 7963,
      "Bomb": 7964,
      "sar": 7965,
      "sance": 7966,
      "».<": 7967,
      "entrait": 7968,
      "teaux": 7969,
      "adver": 7970,
      "adieu": 7971,
      "addition": 7972,
      "abî": 7973,
      "permettre": 7974,
      "marée": 7975,
      "tail": 7976,
      "gid": 7977,
      "gique": 7978,
      "assom": 7979,
      "engers": 7980,
      "example": 7981,
      "stuff": 7982,
      "freed": 7983,
      "Personne": 7984,
      "slipped": 7985,
      "sauvages": 7986,
      "solid": 7987,
      "siège": 7988,
      "goutte": 7989,
      "rencontré": 7990,
      "mérite": 7991,
      "peasant": 7992,
      "espérer": 7993,
      "cellu": 7994,
      "Certainly": 7995,
      "violemment": 7996,
      "Cunégonde": 7997,
      ",—": 7998,
      "flying": 7999,
      "hanged": 8000,
      "sn": 8001,
      "sap": 8002,
      "leap": 8003,
      "lava": 8004,
      "audit": 8005,
      "aigne": 8006,
      "irons": 8007,
      "aining": 8008,
      "amener": 8009,
      "fru": 8010,
      "résign": 8011,
      "maintain": 8012,
      "lows": 8013,
      "tempête": 8014,
      "anybody": 8015,
      "sentin": 8016,
      "ontaire": 8017,
      "fermée": 8018,
      "restée": 8019,
      "commençai": 8020,
      "terrified": 8021,
      "apparition": 8022,
      "difficulté": 8023,
      "vagues": 8024,
      "madam": 8025,
      "remonter": 8026,
      "reproach": 8027,
      "plantation": 8028,
      "gouvernante": 8029,
      "Ferrier": 8030,
      "glimp": 8031,
      "montrant": 8032,
      "sauta": 8033,
      "climbed": 8034,
      "possibly": 8035,
      "Grivet": 8036,
      "Hur": 8037,
      "Sat": 8038,
      "Tant": 8039,
      "Trois": 8040,
      "Venez": 8041,
      "gif": 8042,
      "mill": 8043,
      "savant": 8044,
      "uary": 8045,
      "labor": 8046,
      "lib": 8047,
      "lim": 8048,
      "étour": 8049,
      "comtesse": 8050,
      "veget": 8051,
      "fian": 8052,
      "project": 8053,
      "boots": 8054,
      "couches": 8055,
      "justi": 8056,
      "Châ": 8057,
      "Once": 8058,
      "pouvons": 8059,
      "naked": 8060,
      "wick": 8061,
      "pursued": 8062,
      "érir": 8063,
      "Cape": 8064,
      "Grande": 8065,
      "changement": 8066,
      "jury": 8067,
      "formerly": 8068,
      "gouverneur": 8069,
      "accepted": 8070,
      "Adieu": 8071,
      "înt": 8072,
      "jealousy": 8073,
      "aviour": 8074,
      "mettez": 8075,
      "guilty": 8076,
      "Bombay": 8077,
      "Chim": 8078,
      "Ketty": 8079,
      "Lheureux": 8080,
      "Pat": 8081,
      "bier": 8082,
      "loun": 8083,
      "mast": 8084,
      "nou": 8085,
      "nit": 8086,
      "wants": 8087,
      "hest": 8088,
      "recalled": 8089,
      "retreat": 8090,
      "quill": 8091,
      "mered": 8092,
      "prac": 8093,
      "conver": 8094,
      "consult": 8095,
      "loaded": 8096,
      "dim": 8097,
      "cocher": 8098,
      "désh": 8099,
      "mesur": 8100,
      "provided": 8101,
      "tenez": 8102,
      "imprudent": 8103,
      "réputation": 8104,
      "répondu": 8105,
      "charger": 8106,
      "folly": 8107,
      "folded": 8108,
      "signs": 8109,
      "quets": 8110,
      "habitation": 8111,
      "hurst": 8112,
      "ajouter": 8113,
      "wanting": 8114,
      "vanity": 8115,
      "plupart": 8116,
      "tendresse": 8117,
      "ignorance": 8118,
      "sleeping": 8119,
      "handed": 8120,
      "gagné": 8121,
      "examiner": 8122,
      "donnaient": 8123,
      "princip": 8124,
      "reflection": 8125,
      "essaya": 8126,
      "hérit": 8127,
      "procure": 8128,
      "jugement": 8129,
      "candles": 8130,
      "crushed": 8131,
      "construction": 8132,
      "services": 8133,
      "abilité": 8134,
      "province": 8135,
      "silencieux": 8136,
      "citadel": 8137,
      "betrayed": 8138,
      "Signora": 8139,
      "suspicion": 8140,
      "Great": 8141,
      "raisonnable": 8142,
      "America": 8143,
      "exhausted": 8144,
      "Colonel": 8145,
      ".'": 8146,
      "Cécile": 8147,
      "Pardon": 8148,
      "Str": 8149,
      "Vol": 8150,
      "XIII": 8151,
      "bous": 8152,
      "bill": 8153,
      "daign": 8154,
      "rout": 8155,
      "reusement": 8156,
      "espace": 8157,
      "tools": 8158,
      "medit": 8159,
      "noires": 8160,
      "utmost": 8161,
      "abun": 8162,
      "formé": 8163,
      "tiv": 8164,
      "exh": 8165,
      "disco": 8166,
      "venais": 8167,
      "gown": 8168,
      "vico": 8169,
      "minuit": 8170,
      "imprudence": 8171,
      "rette": 8172,
      "mendi": 8173,
      "souver": 8174,
      "devin": 8175,
      "capri": 8176,
      "shock": 8177,
      "whale": 8178,
      "ruined": 8179,
      "supérieur": 8180,
      "trava": 8181,
      "formait": 8182,
      "seconds": 8183,
      "commencé": 8184,
      "flood": 8185,
      "Grant": 8186,
      "sorrow": 8187,
      "pousser": 8188,
      "hardi": 8189,
      "suffit": 8190,
      "fascin": 8191,
      "understanding": 8192,
      "suppli": 8193,
      "summit": 8194,
      "deliver": 8195,
      "assurer": 8196,
      "provision": 8197,
      "comfortable": 8198,
      "froidement": 8199,
      "exprimer": 8200,
      "uneasy": 8201,
      "impertin": 8202,
      "bizarre": 8203,
      "Faust": 8204,
      "IE": 8205,
      "Kong": 8206,
      "Leur": 8207,
      "Tell": 8208,
      "jon": 8209,
      "lons": 8210,
      "oes": 8211,
      "pét": 8212,
      "oupe": 8213,
      "insu": 8214,
      "arrest": 8215,
      "ashes": 8216,
      "orted": 8217,
      "aved": 8218,
      "rirent": 8219,
      "prai": 8220,
      "confir": 8221,
      "stared": 8222,
      "divided": 8223,
      "poli": 8224,
      "mbled": 8225,
      "shill": 8226,
      "boîte": 8227,
      "impré": 8228,
      "criant": 8229,
      "complet": 8230,
      "retira": 8231,
      "mercer": 8232,
      "Anne": 8233,
      "pointing": 8234,
      "overcome": 8235,
      "mettant": 8236,
      "central": 8237,
      "pleins": 8238,
      "passée": 8239,
      "goods": 8240,
      "bourse": 8241,
      "Thurs": 8242,
      "entends": 8243,
      "blanches": 8244,
      "inquired": 8245,
      "Hope": 8246,
      "désirait": 8247,
      "eighty": 8248,
      "pronounced": 8249,
      "estime": 8250,
      "essayer": 8251,
      "zzo": 8252,
      "zzled": 8253,
      "mystère": 8254,
      "exploration": 8255,
      "changé": 8256,
      "étendue": 8257,
      "consolation": 8258,
      "penetr": 8259,
      "library": 8260,
      "explanation": 8261,
      "AU": 8262,
      "Hong": 8263,
      "Scot": 8264,
      "Tiens": 8265,
      "Upon": 8266,
      "bac": 8267,
      "bêtes": 8268,
      "glan": 8269,
      "génie": 8270,
      "lèrent": 8271,
      "tut": 8272,
      "vus": 8273,
      "yton": 8274,
      "itive": 8275,
      "issue": 8276,
      "sem": 8277,
      "toler": 8278,
      "chr": 8279,
      "utions": 8280,
      "concent": 8281,
      "paraly": 8282,
      "amuse": 8283,
      "voler": 8284,
      "couché": 8285,
      "pictures": 8286,
      "daylight": 8287,
      "guise": 8288,
      "nerfs": 8289,
      "clart": 8290,
      "assed": 8291,
      "directeur": 8292,
      "mén": 8293,
      "charme": 8294,
      "pleurer": 8295,
      "nevertheless": 8296,
      "cercle": 8297,
      "tournait": 8298,
      "toiles": 8299,
      "vanité": 8300,
      "élevé": 8301,
      "excitement": 8302,
      "atteint": 8303,
      "grima": 8304,
      "birth": 8305,
      "saurait": 8306,
      "Berks": 8307,
      "Naples": 8308,
      "atmosphère": 8309,
      "splendid": 8310,
      "Sauv": 8311,
      "enthousiasme": 8312,
      "Avon": 8313,
      "ranean": 8314,
      "nourriture": 8315,
      "Chimneys": 8316,
      "Bal": 8317,
      "Pe": 8318,
      "UR": 8319,
      "cort": 8320,
      "cate": 8321,
      "eating": 8322,
      "lly": 8323,
      "oil": 8324,
      "hell": 8325,
      "relle": 8326,
      "paris": 8327,
      "soi": 8328,
      "soie": 8329,
      "compla": 8330,
      "monu": 8331,
      "monstre": 8332,
      "extent": 8333,
      "opé": 8334,
      "Heure": 8335,
      "finish": 8336,
      "affected": 8337,
      "contact": 8338,
      "cordi": 8339,
      "directement": 8340,
      "humain": 8341,
      "sombres": 8342,
      "range": 8343,
      "milly": 8344,
      "phant": 8345,
      "professor": 8346,
      "vécu": 8347,
      "approcher": 8348,
      "joue": 8349,
      "sauter": 8350,
      "purse": 8351,
      "mineurs": 8352,
      "tremble": 8353,
      "abandonné": 8354,
      "chevalier": 8355,
      "resolution": 8356,
      "concern": 8357,
      "meilleure": 8358,
      "favorable": 8359,
      "oiseau": 8360,
      "victime": 8361,
      "frappé": 8362,
      "Mouquette": 8363,
      "nullement": 8364,
      "higher": 8365,
      "faiblesse": 8366,
      "manifest": 8367,
      "unexpected": 8368,
      "!...<": 8369,
      "Bah": 8370,
      "Del": 8371,
      "Jes": 8372,
      "bail": 8373,
      "faux": 8374,
      "gay": 8375,
      "niere": 8376,
      "roses": 8377,
      "ôtre": 8378,
      "chor": 8379,
      "chances": 8380,
      "admitted": 8381,
      "soient": 8382,
      "estate": 8383,
      "disput": 8384,
      "proposition": 8385,
      "shak": 8386,
      "crains": 8387,
      "oped": 8388,
      "boats": 8389,
      "tale": 8390,
      "couper": 8391,
      "llen": 8392,
      "corpse": 8393,
      "vieillard": 8394,
      "préhen": 8395,
      "joyeux": 8396,
      "boue": 8397,
      "drôle": 8398,
      "forms": 8399,
      "quator": 8400,
      "wicked": 8401,
      "interesting": 8402,
      "communi": 8403,
      "chairs": 8404,
      "Donc": 8405,
      "grim": 8406,
      "rappeler": 8407,
      "énormes": 8408,
      "singulière": 8409,
      "dirty": 8410,
      "acquainted": 8411,
      "reconnus": 8412,
      "étroit": 8413,
      "................": 8414,
      "beasts": 8415,
      "absorbed": 8416,
      "statue": 8417,
      "côtes": 8418,
      "pénét": 8419,
      "paisible": 8420,
      "schol": 8421,
      "fancied": 8422,
      "explosion": 8423,
      "inexplicable": 8424,
      ".”": 8425,
      "Am": 8426,
      "Hal": 8427,
      "Pont": 8428,
      "baie": 8429,
      "dirait": 8430,
      "san": 8431,
      "souv": 8432,
      "spi": 8433,
      "sages": 8434,
      "tâche": 8435,
      "anks": 8436,
      "islet": 8437,
      "thed": 8438,
      "quai": 8439,
      "ari": 8440,
      "union": 8441,
      "ceremon": 8442,
      "teach": 8443,
      "advent": 8444,
      "sident": 8445,
      "duel": 8446,
      "dimanche": 8447,
      "sonner": 8448,
      "réserve": 8449,
      "max": 8450,
      "crav": 8451,
      "mars": 8452,
      "miners": 8453,
      "inscri": 8454,
      "devoured": 8455,
      "sédu": 8456,
      "vieilles": 8457,
      "oison": 8458,
      "saison": 8459,
      "interested": 8460,
      "careful": 8461,
      "energy": 8462,
      "Lowood": 8463,
      "avoue": 8464,
      "torture": 8465,
      "éloigner": 8466,
      "caché": 8467,
      "inclined": 8468,
      "Ferr": 8469,
      "furniture": 8470,
      "suggest": 8471,
      "Pacifique": 8472,
      "énergie": 8473,
      "travailler": 8474,
      "expérience": 8475,
      "palazzo": 8476,
      "discovery": 8477,
      "El": 8478,
      "Grace": 8479,
      "PAR": 8480,
      "card": 8481,
      "hut": 8482,
      "mout": 8483,
      "naire": 8484,
      "narr": 8485,
      "smal": 8486,
      "wreck": 8487,
      "çois": 8488,
      "ébl": 8489,
      "osen": 8490,
      "remer": 8491,
      "aris": 8492,
      "mechan": 8493,
      "meantime": 8494,
      "aimais": 8495,
      "appointed": 8496,
      "moll": 8497,
      "loon": 8498,
      "résister": 8499,
      "grin": 8500,
      "mince": 8501,
      "mercy": 8502,
      "érait": 8503,
      "clus": 8504,
      "sentier": 8505,
      "tumul": 8506,
      "arrivant": 8507,
      "younger": 8508,
      "boule": 8509,
      "lication": 8510,
      "prompt": 8511,
      "Princess": 8512,
      "knocked": 8513,
      "piro": 8514,
      "arrivés": 8515,
      "suffo": 8516,
      "langage": 8517,
      "papers": 8518,
      "consequently": 8519,
      "Lydie": 8520,
      "officiers": 8521,
      "AND": 8522,
      "désert": 8523,
      "inhabited": 8524,
      "shouting": 8525,
      "anguish": 8526,
      "dwelling": 8527,
      "enthusiasm": 8528,
      "Sunday": 8529,
      "Fausta": 8530,
      "Abra": 8531,
      "lof": 8532,
      "vest": 8533,
      "émer": 8534,
      "ébran": 8535,
      "enable": 8536,
      "qués": 8537,
      "army": 8538,
      "arrested": 8539,
      "lack": 8540,
      "choc": 8541,
      "chées": 8542,
      "chiff": 8543,
      "ressemblait": 8544,
      "sois": 8545,
      "rope": 8546,
      "song": 8547,
      "rences": 8548,
      "monté": 8549,
      "frappa": 8550,
      "exhi": 8551,
      "vio": 8552,
      "wholly": 8553,
      "Heaven": 8554,
      "couraient": 8555,
      "retard": 8556,
      "façons": 8557,
      "acting": 8558,
      "cleared": 8559,
      "emporte": 8560,
      "shown": 8561,
      "accoun": 8562,
      "sortis": 8563,
      "connus": 8564,
      "épan": 8565,
      "prisonniers": 8566,
      "conduit": 8567,
      "sauvé": 8568,
      "Coquen": 8569,
      "Still": 8570,
      "poussière": 8571,
      "...,": 8572,
      "behaviour": 8573,
      "flame": 8574,
      "Jock": 8575,
      "troop": 8576,
      "mingled": 8577,
      "navires": 8578,
      "avançait": 8579,
      "perceive": 8580,
      "distinguish": 8581,
      "rappela": 8582,
      "transports": 8583,
      "explication": 8584,
      "succession": 8585,
      "highest": 8586,
      "recognised": 8587,
      "Georgi": 8588,
      "Ludovic": 8589,
      "Abraham": 8590,
      "Coquenard": 8591,
      "Der": 8592,
      "Fril": 8593,
      "Frol": 8594,
      "Gau": 8595,
      "Laisse": 8596,
      "Mé": 8597,
      "Souv": 8598,
      "Tor": 8599,
      "brie": 8600,
      "eigh": 8601,
      "gress": 8602,
      "tun": 8603,
      "vôt": 8604,
      "èque": 8605,
      "heap": 8606,
      "chase": 8607,
      "rican": 8608,
      "elier": 8609,
      "conom": 8610,
      "parfait": 8611,
      "terie": 8612,
      "treas": 8613,
      "tremp": 8614,
      "duquel": 8615,
      "ieuses": 8616,
      "rolling": 8617,
      "chemist": 8618,
      "nice": 8619,
      "pretended": 8620,
      "rades": 8621,
      "final": 8622,
      "issance": 8623,
      "répéter": 8624,
      "vaques": 8625,
      "auriez": 8626,
      "laissez": 8627,
      "ember": 8628,
      "céré": 8629,
      "subitement": 8630,
      "Three": 8631,
      "ouverture": 8632,
      "endez": 8633,
      "présenta": 8634,
      "skill": 8635,
      "cisely": 8636,
      "scient": 8637,
      "pirates": 8638,
      "regarded": 8639,
      "dormait": 8640,
      "descendait": 8641,
      "lasted": 8642,
      "multip": 8643,
      "légèrement": 8644,
      "eaten": 8645,
      "Phili": 8646,
      "Fervaques": 8647,
      "Tristan": 8648,
      "shadows": 8649,
      "Robert": 8650,
      "concluded": 8651,
      "gazing": 8652,
      "Allez": 8653,
      "fameux": 8654,
      "Frollo": 8655,
      ";<": 8656,
      "Ap": 8657,
      "Med": 8658,
      "Oc": 8659,
      "Red": 8660,
      "Uni": 8661,
      "bast": 8662,
      "bought": 8663,
      "barri": 8664,
      "glow": 8665,
      "jal": 8666,
      "jaw": 8667,
      "ront": 8668,
      "sés": 8669,
      "invisible": 8670,
      "isation": 8671,
      "eries": 8672,
      "essa": 8673,
      "lap": 8674,
      "laun": 8675,
      "altogether": 8676,
      "chasser": 8677,
      "ousse": 8678,
      "abio": 8679,
      "modi": 8680,
      "stage": 8681,
      "allong": 8682,
      "réfu": 8683,
      "mare": 8684,
      "poon": 8685,
      "vid": 8686,
      "opération": 8687,
      "intent": 8688,
      "wouldn": 8689,
      "impas": 8690,
      "pired": 8691,
      "mets": 8692,
      "regardaient": 8693,
      "glor": 8694,
      "Lestrade": 8695,
      "nommé": 8696,
      "promp": 8697,
      "promesse": 8698,
      "pause": 8699,
      "latin": 8700,
      "commend": 8701,
      "blancs": 8702,
      "tenter": 8703,
      "respectable": 8704,
      "sensations": 8705,
      "paraissaient": 8706,
      "excepté": 8707,
      "reflections": 8708,
      "comprenait": 8709,
      ",--<": 8710,
      "demeurait": 8711,
      "Chemin": 8712,
      "XIV": 8713,
      "vereign": 8714,
      "atmosphere": 8715,
      "jumped": 8716,
      "secrets": 8717,
      "sévère": 8718,
      "Archbishop": 8719,
      "cellule": 8720,
      "Jan": 8721,
      "Mous": 8722,
      "Sil": 8723,
      "aked": 8724,
      "fins": 8725,
      "ican": 8726,
      "nut": 8727,
      "oath": 8728,
      "yonder": 8729,
      "inj": 8730,
      "ata": 8731,
      "thie": 8732,
      "chons": 8733,
      "prête": 8734,
      "apparti": 8735,
      "terr": 8736,
      "acité": 8737,
      "withstanding": 8738,
      "render": 8739,
      "renvoy": 8740,
      "illis": 8741,
      "pole": 8742,
      "manières": 8743,
      "perspe": 8744,
      "niveau": 8745,
      "miner": 8746,
      "pretend": 8747,
      "oléon": 8748,
      "reputation": 8749,
      "impri": 8750,
      "passengers": 8751,
      "icy": 8752,
      "affreuse": 8753,
      "enfu": 8754,
      "certaines": 8755,
      "oleon": 8756,
      "izing": 8757,
      "surely": 8758,
      "Grâce": 8759,
      "Grève": 8760,
      "commune": 8761,
      "queton": 8762,
      "échou": 8763,
      "doubted": 8764,
      "furieux": 8765,
      "magas": 8766,
      "harpon": 8767,
      "voisins": 8768,
      "examine": 8769,
      "stupe": 8770,
      "anciens": 8771,
      "couverte": 8772,
      "imaginer": 8773,
      "suffi": 8774,
      "tromper": 8775,
      "Meryton": 8776,
      "rappelait": 8777,
      "dreams": 8778,
      "wretch": 8779,
      "lourd": 8780,
      "description": 8781,
      "ENT": 8782,
      "traverser": 8783,
      "arrangement": 8784,
      "appareil": 8785,
      "convaincu": 8786,
      "Christi": 8787,
      "Gascon": 8788,
      "désormais": 8789,
      "lieutenant": 8790,
      "manufact": 8791,
      "Thursday": 8792,
      "pénétrer": 8793,
      "Georgiana": 8794,
      "Frilair": 8795,
      "Fors": 8796,
      "hag": 8797,
      "jack": 8798,
      "épi": 8799,
      "îles": 8800,
      "anno": 8801,
      "inde": 8802,
      "orage": 8803,
      "apprehen": 8804,
      "accompany": 8805,
      "divis": 8806,
      "roar": 8807,
      "rency": 8808,
      "sade": 8809,
      "défi": 8810,
      "dite": 8811,
      "uption": 8812,
      "dissait": 8813,
      "viande": 8814,
      "somewhere": 8815,
      "hedge": 8816,
      "assist": 8817,
      "arracher": 8818,
      "trouvais": 8819,
      "nails": 8820,
      "raising": 8821,
      "suivis": 8822,
      "sixty": 8823,
      "Const": 8824,
      "frank": 8825,
      "bule": 8826,
      "indicated": 8827,
      "conduisait": 8828,
      "incidents": 8829,
      "borne": 8830,
      "musique": 8831,
      "delivered": 8832,
      "briser": 8833,
      "politesse": 8834,
      "whispered": 8835,
      "guessed": 8836,
      "Rivers": 8837,
      "solide": 8838,
      "élança": 8839,
      "raconta": 8840,
      "causait": 8841,
      "preserved": 8842,
      "fâché": 8843,
      "indignation": 8844,
      "prochaine": 8845,
      "publique": 8846,
      "Aussitôt": 8847,
      "Finally": 8848,
      "lounge": 8849,
      "!--": 8850,
      "Dun": 8851,
      "Dites": 8852,
      "Fait": 8853,
      "Pember": 8854,
      "ares": 8855,
      "fallu": 8856,
      "hap": 8857,
      "pendre": 8858,
      "rô": 8859,
      "Écou": 8860,
      "devez": 8861,
      "laires": 8862,
      "chosen": 8863,
      "lesquelles": 8864,
      "molue": 8865,
      "divine": 8866,
      "hadn": 8867,
      "plent": 8868,
      "mono": 8869,
      "gru": 8870,
      "proté": 8871,
      "shaking": 8872,
      "cra": 8873,
      "raft": 8874,
      "touché": 8875,
      "greet": 8876,
      "southern": 8877,
      "canons": 8878,
      "likewise": 8879,
      "price": 8880,
      "truly": 8881,
      "Charmolue": 8882,
      "miracle": 8883,
      "détail": 8884,
      "choose": 8885,
      "ondered": 8886,
      "poussé": 8887,
      "flus": 8888,
      "toires": 8889,
      "contented": 8890,
      "remarquer": 8891,
      "distinguer": 8892,
      "adresser": 8893,
      "invited": 8894,
      "Riche": 8895,
      "théâtre": 8896,
      "active": 8897,
      "fighting": 8898,
      "nécessaires": 8899,
      "protection": 8900,
      "étroite": 8901,
      "inhabitants": 8902,
      "cavalier": 8903,
      "liquid": 8904,
      "naufr": 8905,
      "Malgré": 8906,
      "absurd": 8907,
      "gallop": 8908,
      "coutume": 8909,
      "breeze": 8910,
      "archevêque": 8911,
      "libér": 8912,
      "remercie": 8913,
      "Souvarine": 8914,
      "réfugi": 8915,
      "Forster": 8916,
      "Pemberley": 8917,
      "Afri": 8918,
      "ET": 8919,
      "Four": 8920,
      "Fabio": 8921,
      "Hô": 8922,
      "Imp": 8923,
      "Pet": 8924,
      "Trou": 8925,
      "cils": 8926,
      "hir": 8927,
      "éto": 8928,
      "écart": 8929,
      "osait": 8930,
      "reinte": 8931,
      "retire": 8932,
      "reduced": 8933,
      "inut": 8934,
      "inclu": 8935,
      "associ": 8936,
      "ceinture": 8937,
      "abais": 8938,
      "amused": 8939,
      "dug": 8940,
      "supre": 8941,
      "plor": 8942,
      "plants": 8943,
      "ferez": 8944,
      "perte": 8945,
      "attes": 8946,
      "guests": 8947,
      "douzaine": 8948,
      "cases": 8949,
      "tressaill": 8950,
      "aurions": 8951,
      "prirent": 8952,
      "naï": 8953,
      "traveller": 8954,
      "accès": 8955,
      "hunting": 8956,
      "household": 8957,
      "blessure": 8958,
      "buy": 8959,
      "banks": 8960,
      "prisoners": 8961,
      "matinée": 8962,
      "balcon": 8963,
      "roads": 8964,
      "passionate": 8965,
      "inquiet": 8966,
      "employer": 8967,
      "cieusement": 8968,
      "nombreux": 8969,
      "expecting": 8970,
      "précipita": 8971,
      "études": 8972,
      "destinée": 8973,
      "sufficiently": 8974,
      "article": 8975,
      "arguments": 8976,
      "remarkable": 8977,
      "inquir": 8978,
      "awkward": 8979,
      "Heureusement": 8980,
      "Mousqueton": 8981,
      "Apres": 8982,
      "Ham": 8983,
      "Sam": 8984,
      "Tenez": 8985,
      "fare": 8986,
      "gaie": 8987,
      "quo": 8988,
      "ories": 8989,
      "meal": 8990,
      "teenth": 8991,
      "tration": 8992,
      "herbes": 8993,
      "rochers": 8994,
      "désign": 8995,
      "pourvu": 8996,
      "réalité": 8997,
      "doi": 8998,
      "cier": 8999,
      "upstairs": 9000,
      "goû": 9001,
      "donnée": 9002,
      "butter": 9003,
      "auté": 9004,
      "plaire": 9005,
      "oked": 9006,
      "température": 9007,
      "bond": 9008,
      "mute": 9009,
      "empoison": 9010,
      "troublé": 9011,
      "spare": 9012,
      "raise": 9013,
      "instance": 9014,
      "trick": 9015,
      "talent": 9016,
      "bruy": 9017,
      "toral": 9018,
      "produce": 9019,
      "Queen": 9020,
      "arrivèrent": 9021,
      "soufflait": 9022,
      "generous": 9023,
      "vagabond": 9024,
      "sûreté": 9025,
      "cousine": 9026,
      "daughters": 9027,
      "golden": 9028,
      "Messieurs": 9029,
      "movements": 9030,
      "governor": 9031,
      "prononcer": 9032,
      "Certes": 9033,
      "offrait": 9034,
      "threatened": 9035,
      "welcome": 9036,
      "condemned": 9037,
      "catastrophe": 9038,
      "Each": 9039,
      "Fe": 9040,
      "Having": 9041,
      "Nan": 9042,
      "Souvent": 9043,
      "bars": 9044,
      "cune": 9045,
      "caisse": 9046,
      "fain": 9047,
      "ibles": 9048,
      "releva": 9049,
      "ino": 9050,
      "asmin": 9051,
      "lame": 9052,
      "text": 9053,
      "chure": 9054,
      "neurs": 9055,
      "simil": 9056,
      "prouve": 9057,
      "desert": 9058,
      "comrades": 9059,
      "geaient": 9060,
      "manqué": 9061,
      "viously": 9062,
      "shaw": 9063,
      "marble": 9064,
      "marbre": 9065,
      "marier": 9066,
      "angel": 9067,
      "moreover": 9068,
      "gies": 9069,
      "prier": 9070,
      "supported": 9071,
      "affli": 9072,
      "quoiqu": 9073,
      "steep": 9074,
      "forming": 9075,
      "rassur": 9076,
      "appartenait": 9077,
      "sinis": 9078,
      "vanished": 9079,
      "savages": 9080,
      "rappel": 9081,
      "Lodo": 9082,
      "instructions": 9083,
      "avancer": 9084,
      "refuser": 9085,
      "reaching": 9086,
      "aventures": 9087,
      "stopping": 9088,
      "annoncer": 9089,
      "activ": 9090,
      "circumstance": 9091,
      "describe": 9092,
      "éprouvait": 9093,
      "supportable": 9094,
      "neighbourhood": 9095,
      "offrit": 9096,
      "hastily": 9097,
      "ruisseau": 9098,
      "obeyed": 9099,
      "Derville": 9100,
      "Palais": 9101,
      "Raver": 9102,
      "Suez": 9103,
      "creek": 9104,
      "dal": 9105,
      "flatter": 9106,
      "kers": 9107,
      "nment": 9108,
      "owe": 9109,
      "vins": 9110,
      "osa": 9111,
      "endirent": 9112,
      "ittle": 9113,
      "isant": 9114,
      "essu": 9115,
      "ado": 9116,
      "adminis": 9117,
      "eling": 9118,
      "trad": 9119,
      "abroad": 9120,
      "conject": 9121,
      "forts": 9122,
      "accomp": 9123,
      "coarse": 9124,
      "grate": 9125,
      "derniere": 9126,
      "disgust": 9127,
      "venger": 9128,
      "selle": 9129,
      "marque": 9130,
      "marins": 9131,
      "minds": 9132,
      "gna": 9133,
      "gigant": 9134,
      "bones": 9135,
      "nuage": 9136,
      "metal": 9137,
      "précaution": 9138,
      "passèrent": 9139,
      "underwater": 9140,
      "embou": 9141,
      "vég": 9142,
      "grandeur": 9143,
      "chanter": 9144,
      "frot": 9145,
      "égal": 9146,
      "fouet": 9147,
      "présentait": 9148,
      "harpoon": 9149,
      "violente": 9150,
      "closely": 9151,
      "confes": 9152,
      "branch": 9153,
      "trompé": 9154,
      "fishing": 9155,
      "exception": 9156,
      "chacune": 9157,
      "tiré": 9158,
      "employé": 9159,
      "résolus": 9160,
      "emporté": 9161,
      "wonderful": 9162,
      "fantais": 9163,
      "rideaux": 9164,
      "radeau": 9165,
      "recherche": 9166,
      "Réquill": 9167,
      "tambour": 9168,
      "stammered": 9169,
      "Bébert": 9170,
      "towers": 9171,
      "Wardes": 9172,
      "Highness": 9173,
      "biblioth": 9174,
      "athédra": 9175,
      "cérémon": 9176,
      "Lodovico": 9177,
      "Raversi": 9178,
      "Réquillart": 9179,
      "!...": 9180,
      "CE": 9181,
      "Frant": 9182,
      "Gaston": 9183,
      "ST": 9184,
      "cathédra": 9185,
      "nin": 9186,
      "vesti": 9187,
      "ery": 9188,
      "quise": 9189,
      "cep": 9190,
      "trés": 9191,
      "formal": 9192,
      "outils": 9193,
      "appréci": 9194,
      "vex": 9195,
      "lumn": 9196,
      "column": 9197,
      "pourrai": 9198,
      "disappear": 9199,
      "vides": 9200,
      "vibr": 9201,
      "shining": 9202,
      "plafond": 9203,
      "marchant": 9204,
      "bodies": 9205,
      "quelconque": 9206,
      "raw": 9207,
      "arrang": 9208,
      "certitude": 9209,
      "nail": 9210,
      "restaient": 9211,
      "murde": 9212,
      "friendly": 9213,
      "counted": 9214,
      "Those": 9215,
      "receiving": 9216,
      "midnight": 9217,
      "Altesse": 9218,
      "tendit": 9219,
      "frere": 9220,
      "levai": 9221,
      "breathing": 9222,
      "procès": 9223,
      "Rouge": 9224,
      "Napoleon": 9225,
      "niece": 9226,
      "actually": 9227,
      "admire": 9228,
      "invest": 9229,
      "deceived": 9230,
      "American": 9231,
      "eagerly": 9232,
      "Indian": 9233,
      "Contessa": 9234,
      "helped": 9235,
      "pharmacien": 9236,
      "relieved": 9237,
      "régiment": 9238,
      "safety": 9239,
      "freedom": 9240,
      "lofty": 9241,
      "supreme": 9242,
      "gigantic": 9243,
      ",”": 9244,
      "Gent": 9245,
      "Hor": 9246,
      "Mai": 9247,
      "couvent": 9248,
      "gou": 9249,
      "nages": 9250,
      "raven": 9251,
      "éve": 9252,
      "revi": 9253,
      "resign": 9254,
      "recall": 9255,
      "assé": 9256,
      "illo": 9257,
      "entré": 9258,
      "thither": 9259,
      "soigne": 9260,
      "dious": 9261,
      "extrav": 9262,
      "exposed": 9263,
      "serra": 9264,
      "posa": 9265,
      "carpet": 9266,
      "devel": 9267,
      "impul": 9268,
      "assait": 9269,
      "voulaient": 9270,
      "vingts": 9271,
      "igner": 9272,
      "ggs": 9273,
      "cloche": 9274,
      "fourth": 9275,
      "motions": 9276,
      "sources": 9277,
      "approchait": 9278,
      "quitte": 9279,
      "pains": 9280,
      "swept": 9281,
      "repeating": 9282,
      "livrer": 9283,
      "Norbert": 9284,
      "Liver": 9285,
      "Napoléon": 9286,
      "weakness": 9287,
      "intens": 9288,
      "déserte": 9289,
      "stirred": 9290,
      "diminu": 9291,
      "commerce": 9292,
      "glimpse": 9293,
      "Cheminées": 9294,
      "Apr": 9295,
      "Bast": 9296,
      "Dene": 9297,
      "Nord": 9298,
      "cées": 9299,
      "fought": 9300,
      "gather": 9301,
      "ration": 9302,
      "ratt": 9303,
      "vrais": 9304,
      "viennent": 9305,
      "édu": 9306,
      "recent": 9307,
      "ilst": 9308,
      "ceiling": 9309,
      "confort": 9310,
      "apt": 9311,
      "committed": 9312,
      "loves": 9313,
      "stars": 9314,
      "rocher": 9315,
      "robes": 9316,
      "wept": 9317,
      "holes": 9318,
      "feux": 9319,
      "fears": 9320,
      "expense": 9321,
      "fices": 9322,
      "grac": 9323,
      "grille": 9324,
      "perdus": 9325,
      "ulin": 9326,
      "proie": 9327,
      "shaft": 9328,
      "whel": 9329,
      "couleurs": 9330,
      "rah": 9331,
      "partage": 9332,
      "Any": 9333,
      "nerre": 9334,
      "océ": 9335,
      "cursed": 9336,
      "aurons": 9337,
      "personnages": 9338,
      "turns": 9339,
      "certainty": 9340,
      "paying": 9341,
      "terribles": 9342,
      "jouait": 9343,
      "échange": 9344,
      "domaine": 9345,
      "arrêtait": 9346,
      "balle": 9347,
      "nouvel": 9348,
      "louis": 9349,
      "pull": 9350,
      "cliff": 9351,
      "servante": 9352,
      "consideration": 9353,
      "distinguished": 9354,
      "obstacles": 9355,
      "stories": 9356,
      "accompagner": 9357,
      "Germain": 9358,
      "religious": 9359,
      "misérables": 9360,
      "require": 9361,
      "compliments": 9362,
      "caresses": 9363,
      "uneasiness": 9364,
      "established": 9365,
      "Italie": 9366,
      "abruptly": 9367,
      "numerous": 9368,
      "apparaissait": 9369,
      "gigantes": 9370,
      "perspective": 9371,
      "bibliothèque": 9372,
      "extravag": 9373,
      "April": 9374,
      "Deneulin": 9375,
      "';": 9376,
      "11": 9377,
      "ION": 9378,
      "MM": 9379,
      "equi": 9380,
      "fous": 9381,
      "gly": 9382,
      "ime": 9383,
      "nap": 9384,
      "sain": 9385,
      "za": 9386,
      "âtres": 9387,
      "çade": 9388,
      "écur": 9389,
      "outr": 9390,
      "arou": 9391,
      "ashing": 9392,
      "tomorrow": 9393,
      "thou": 9394,
      "aume": 9395,
      "concert": 9396,
      "coats": 9397,
      "illusion": 9398,
      "purent": 9399,
      "auxquels": 9400,
      "precious": 9401,
      "raced": 9402,
      "façade": 9403,
      "cherche": 9404,
      "cherchant": 9405,
      "coral": 9406,
      "humour": 9407,
      "ferais": 9408,
      "prévenir": 9409,
      "ptions": 9410,
      "aks": 9411,
      "itudes": 9412,
      "lightning": 9413,
      "barque": 9414,
      "effroi": 9415,
      "Soon": 9416,
      "floating": 9417,
      "égay": 9418,
      "pater": 9419,
      "vraie": 9420,
      "expan": 9421,
      "balbut": 9422,
      "slee": 9423,
      "Seig": 9424,
      "quantity": 9425,
      "fierce": 9426,
      "slightest": 9427,
      "temperature": 9428,
      "Rochelle": 9429,
      "stroke": 9430,
      "choix": 9431,
      "chimney": 9432,
      "élevée": 9433,
      "naissance": 9434,
      "Jackson": 9435,
      "humide": 9436,
      "vulg": 9437,
      "caverne": 9438,
      "Fortun": 9439,
      "distribu": 9440,
      "dangereux": 9441,
      "infiniment": 9442,
      "acknowled": 9443,
      "clarté": 9444,
      "Richelieu": 9445,
[...]
